{"0": "\u0000", "1": "\u0001", "2": "\u0002", "3": "\u0003", "4": "\u0004", "5": "\u0005", "6": "\u0006", "7": "\u0007", "8": "\b", "9": "\t", "10": "\n", "11": "\u000b", "12": "\f", "13": "\r", "14": "\u000e", "15": "\u000f", "16": "\u0010", "17": "\u0011", "18": "\u0012", "19": "\u0013", "20": "\u0014", "21": "\u0015", "22": "\u0016", "23": "\u0017", "24": "\u0018", "25": "\u0019", "26": "\u001a", "27": "\u001b", "28": "\u001c", "29": "\u001d", "30": "\u001e", "31": "\u001f", "32": " ", "33": "!", "34": "\"", "35": "#", "36": "$", "37": "%", "38": "&", "39": "'", "40": "(", "41": ")", "42": "*", "43": "+", "44": ",", "45": "-", "46": ".", "47": "/", "48": "0", "49": "1", "50": "2", "51": "3", "52": "4", "53": "5", "54": "6", "55": "7", "56": "8", "57": "9", "58": ":", "59": ";", "60": "<", "61": "=", "62": ">", "63": "?", "64": "@", "65": "A", "66": "B", "67": "C", "68": "D", "69": "E", "70": "F", "71": "G", "72": "H", "73": "I", "74": "J", "75": "K", "76": "L", "77": "M", "78": "N", "79": "O", "80": "P", "81": "Q", "82": "R", "83": "S", "84": "T", "85": "U", "86": "V", "87": "W", "88": "X", "89": "Y", "90": "Z", "91": "[", "92": "\\", "93": "]", "94": "^", "95": "_", "96": "`", "97": "a", "98": "b", "99": "c", "100": "d", "101": "e", "102": "f", "103": "g", "104": "h", "105": "i", "106": "j", "107": "k", "108": "l", "109": "m", "110": "n", "111": "o", "112": "p", "113": "q", "114": "r", "115": "s", "116": "t", "117": "u", "118": "v", "119": "w", "120": "x", "121": "y", "122": "z", "123": "{", "124": "|", "125": "}", "126": "~", "127": "\u007f", "128": "\u0080", "129": "\u0081", "130": "\u0082", "131": "\u0083", "132": "\u0084", "133": "\u0085", "134": "\u0086", "135": "\u0087", "136": "\u0088", "137": "\u0089", "138": "\u008a", "139": "\u008b", "140": "\u008c", "141": "\u008d", "142": "\u008e", "143": "\u008f", "144": "\u0090", "145": "\u0091", "146": "\u0092", "147": "\u0093", "148": "\u0094", "149": "\u0095", "150": "\u0096", "151": "\u0097", "152": "\u0098", "153": "\u0099", "154": "\u009a", "155": "\u009b", "156": "\u009c", "157": "\u009d", "158": "\u009e", "159": "\u009f", "160": "\u00a0", "161": "\u00a1", "162": "\u00a2", "163": "\u00a3", "164": "\u00a4", "165": "\u00a5", "166": "\u00a6", "167": "\u00a7", "168": "\u00a8", "169": "\u00a9", "170": "\u00aa", "171": "\u00ab", "172": "\u00ac", "173": "\u00ad", "174": "\u00ae", "175": "\u00af", "176": "\u00b0", "177": "\u00b1", "178": "\u00b2", "179": "\u00b3", "180": "\u00b4", "181": "\u00b5", "182": "\u00b6", "183": "\u00b7", "184": "\u00b8", "185": "\u00b9", "186": "\u00ba", "187": "\u00bb", "188": "\u00bc", "189": "\u00bd", "190": "\u00be", "191": "\u00bf", "192": "\u00c0", "193": "\u00c1", "194": "\u00c2", "195": "\u00c3", "196": "\u00c4", "197": "\u00c5", "198": "\u00c6", "199": "\u00c7", "200": "\u00c8", "201": "\u00c9", "202": "\u00ca", "203": "\u00cb", "204": "\u00cc", "205": "\u00cd", "206": "\u00ce", "207": "\u00cf", "208": "\u00d0", "209": "\u00d1", "210": "\u00d2", "211": "\u00d3", "212": "\u00d4", "213": "\u00d5", "214": "\u00d6", "215": "\u00d7", "216": "\u00d8", "217": "\u00d9", "218": "\u00da", "219": "\u00db", "220": "\u00dc", "221": "\u00dd", "222": "\u00de", "223": "\u00df", "224": "\u00e0", "225": "\u00e1", "226": "\u00e2", "227": "\u00e3", "228": "\u00e4", "229": "\u00e5", "230": "\u00e6", "231": "\u00e7", "232": "\u00e8", "233": "\u00e9", "234": "\u00ea", "235": "\u00eb", "236": "\u00ec", "237": "\u00ed", "238": "\u00ee", "239": "\u00ef", "240": "\u00f0", "241": "\u00f1", "242": "\u00f2", "243": "\u00f3", "244": "\u00f4", "245": "\u00f5", "246": "\u00f6", "247": "\u00f7", "248": "\u00f8", "249": "\u00f9", "250": "\u00fa", "251": "\u00fb", "252": "\u00fc", "253": "\u00fd", "254": "\u00fe", "255": "\u00ff", "256": "he", "257": " t", "258": " a", "259": "th", "260": " s", "261": "an", "262": " w", "263": " h", "264": "nd", "265": "ed", "266": "er", "267": "to", "268": "in", "269": " b", "270": "wa", "271": "re", "272": "ou", "273": "as", "274": " f", "275": "it", "276": "ha", "277": " i", "278": "en", "279": "ar", "280": " l", "281": " c", "282": " d", "283": " o", "284": "ng", "285": "ve", "286": " m", "287": " p", "288": "le", "289": "om", "290": "on", "291": "at", "292": "me", "293": "hi", "294": "Th", "295": "ay", "296": " T", "297": "te", "298": "is", "299": "ne", "300": "sa", "301": "\n\n", "302": " g", "303": "id", "304": "il", "305": "or", "306": "ke", "307": "ea", "308": "st", "309": "lo", "310": "ll", "311": "sh", "312": "ey", "313": " n", "314": "li", "315": "nt", "316": "al", "317": "ly", "318": "ai", "319": "oo", "320": " S", "321": "ad", "322": "de", "323": "im", "324": "ut", "325": "ro", "326": "so", "327": "es", "328": "ca", "329": "el", "330": "se", "331": "et", "332": "la", "333": " r", "334": "un", "335": "ti", "336": "be", "337": "ri", "338": "ot", "339": "He", "340": "ho", "341": "ry", "342": "wi", "343": " H", "344": "ir", "345": "we", "346": "ee", "347": "Sh", "348": "ra", "349": "ow", "350": "ma", "351": " e", "352": "mo", "353": "ce", "354": "pl", "355": "ld", "356": " the", "357": " and", "358": " to", "359": " he", "360": " was", "361": "ing", "362": "her", "363": "hey", "364": " sa", "365": " The", "366": " it", "367": " She", "368": " in", "369": " He", "370": "ver", "371": "hat", "372": "aid", "373": "ck", "374": " u", "375": " y", "376": "ked", "377": " wi", "378": " she", "379": "pp", "380": "ily", "381": " be", "382": " ha", "383": "ith", "384": "ig", "385": " I", "386": " so", "387": " of", "388": "Lil", "389": " his", "390": "you", "391": "ery", "392": "up", "393": " L", "394": " day", "395": " tha", "396": " pl", "397": "ome", "398": "ted", "399": "gh", "400": "ook", "401": "\n\nT", "402": "here", "403": "ap", "404": "ant", "405": " on", "406": "lay", "407": " had", "408": " v", "409": " th", "410": " mom", "411": "ent", "412": "my", "413": " st", "414": "'s", "415": " for", "416": "ould", "417": "tle", "418": "itt", "419": "The", "420": " li", "421": "am", "422": "hen", "423": " ti", "424": " B", "425": "ac", "426": "ime", "427": " wan", "428": "ch", "429": "out", "430": " lit", "431": "ound", "432": "oy", "433": "py", "434": " do", "435": " ne", "436": "rou", "437": "It", "438": "ht", "439": " bi", "440": " re", "441": " k", "442": "end", "443": " \n\n", "444": " ca", "445": "aw", "446": " lo", "447": " fri", "448": " as", "449": "rie", "450": " but", "451": " M", "452": " bo", "453": " ba", "454": "One", "455": "On", "456": " her", "457": " said", "458": " They", "459": " with", "460": " you", "461": "very", "462": " that", "463": " up", "464": " play", "465": " they", "466": " Lily", "467": " happ", "468": " little", "469": " time", "470": " ver", "471": " there", "472": "ppy", "473": " big", "474": " friend", "475": " saw", "476": "\n\nThe", "477": "'t", "478": "ved", "479": "Once", "480": " It", "481": " is", "482": "ere", "483": " some", "484": "ake", "485": " wer", "486": " an", "487": " not", "488": " Tim", "489": "pon", "490": " sm", "491": " gir", "492": " him", "493": "ide", "494": "ec", "495": "irl", "496": "ter", "497": " wanted", "498": " go", "499": " j", "500": " out", "501": "fu", "502": "way", "503": " could", "504": " J", "505": " ex", "506": "ul", "507": "ur", "508": "ard", "509": " no", "510": "ug", "511": " sp", "512": " them", "513": " A", "514": "round", "515": " can", "516": "and", "517": " went", "518": " ar", "519": "hed", "520": "ill", "521": " did", "522": " hel", "523": " their", "524": "rom", "525": " ma", "526": " at", "527": "lp", "528": " are", "529": "ain", "530": "ends", "531": "immy", "532": " have", "533": "mil", "534": "um", "535": "iled", "536": "ght", "537": " all", "538": "amed", "539": "ear", "540": " hu", "541": "lly", "542": "our", "543": " back", "544": "thing", "545": " nam", "546": "ny", "547": "one", "548": " asked", "549": " fun", "550": "ys", "551": "ark", "552": " star", "553": "ood", "554": "all", "555": "elt", "556": " very", "557": " happy", "558": " were", "559": " upon", "560": " girl", "561": "ful", "562": " help", "563": " friends", "564": " smiled", "565": " named", "566": " loved", "567": " Ben", "568": " loo", "569": "ore", "570": " One", "571": " around", "572": "ooked", "573": " too", "574": " like", "575": "ind", "576": "side", "577": "get", "578": " felt", "579": "low", "580": " Timmy", "581": " fi", "582": " sh", "583": " ro", "584": " boy", "585": " sc", "586": " mo", "587": "ure", "588": " fe", "589": " bir", "590": " al", "591": " Tom", "592": " man", "593": "ird", "594": " see", "595": "You", "596": "dd", "597": " would", "598": " sto", "599": "ether", "600": " pi", "601": "ther", "602": "ree", "603": "ight", "604": " W", "605": " wor", "606": " me", "607": " ag", "608": " make", "609": " tre", "610": " tog", "611": " started", "612": " say", "613": "ings", "614": "ited", "615": " what", "616": " something", "617": "ade", "618": " away", "619": " mad", "620": " exc", "621": " ran", "622": " car", "623": " want", "624": "cit", "625": " co", "626": " thing", "627": " wat", "628": "ic", "629": " park", "630": "ble", "631": "pped", "632": " But", "633": "\u00c3\u00a2", "634": "\n\nS", "635": " from", "636": " ot", "637": " sad", "638": " new", "639": "ud", "640": "ick", "641": "Lily", "642": " look", "643": " then", "644": "gain", "645": " we", "646": " mu", "647": " home", "648": " put", "649": "car", "650": " wal", "651": " found", "652": "ge", "653": "ack", "654": " when", "655": "ally", "656": " looked", "657": "gether", "658": " bird", "659": " toget", "660": " made", "661": " again", "662": " other", "663": " scar", "664": " who", "665": " excited", "666": " ho", "667": "ice", "668": " playing", "669": "own", "670": " hug", "671": "qu", "672": "ue", "673": " get", "674": " dec", "675": "ried", "676": " You", "677": " E", "678": " sho", "679": "his", "680": " good", "681": "now", "682": " ga", "683": "king", "684": " things", "685": "ous", "686": "ared", "687": " kn", "688": " got", "689": " one", "690": " came", "691": " every", "692": "udd", "693": " bu", "694": " wa", "695": "ecid", "696": "ided", "697": " thou", "698": " D", "699": "ought", "700": "ust", "701": " po", "702": "ara", "703": " dog", "704": " dow", "705": " la", "706": " sha", "707": " liked", "708": " than", "709": "ouse", "710": " care", "711": " tree", "712": " feel", "713": "bb", "714": "op", "715": " says", "716": " find", "717": "ways", "718": " your", "719": " dad", "720": "uck", "721": " ab", "722": "ss", "723": " beca", "724": " alway", "725": "ers", "726": "\n\nOne", "727": " F", "728": " ke", "729": "ax", "730": " kne", "731": " didn", "732": "ite", "733": " clo", "734": " take", "735": "ned", "736": "bout", "737": " lot", "738": "ged", "739": " old", "740": "ty", "741": " took", "742": "mb", "743": "ave", "744": "dden", "745": "ob", "746": "eci", "747": " tri", "748": "ise", "749": " outside", "750": " my", "751": " mommy", "752": " Ma", "753": " Mom", "754": "lled", "755": "nder", "756": " together", "757": " decided", "758": " scared", "759": " down", "760": " always", "761": " thought", "762": " about", "763": "udden", "764": "\n\nB", "765": "enly", "766": "ened", "767": " \n\nThe", "768": "each", "769": " speci", "770": "ecial", "771": " toys", "772": "na", "773": " knew", "774": " lear", "775": " know", "776": "ep", "777": " more", "778": "\n\nA", "779": "nn", "780": " pre", "781": " bea", "782": "ist", "783": "fter", "784": " any", "785": " will", "786": " cat", "787": "ff", "788": " en", "789": "ven", "790": "\n\nLily", "791": " Sam", "792": "ish", "793": " sun", "794": "ess", "795": " how", "796": " gr", "797": " toy", "798": " show", "799": "\n\nThey", "800": " Max", "801": "ive", "802": "dy", "803": " into", "804": " much", "805": "\n\nM", "806": " couldn", "807": " sk", "808": "ate", "809": " told", "810": "sed", "811": " qu", "812": "pen", "813": " this", "814": "\u00c5\u0093", "815": " if", "816": " inside", "817": " hand", "818": "roud", "819": " prou", "820": " room", "821": " never", "822": " over", "823": " heard", "824": " house", "825": "But", "826": " op", "827": "cy", "828": " sor", "829": " gre", "830": " gave", "831": " pu", "832": "uc", "833": " tw", "834": " pick", "835": " Every", "836": "row", "837": " played", "838": " ea", "839": "orry", "840": " tried", "841": " bro", "842": "fe", "843": "use", "844": "ket", "845": " run", "846": " sw", "847": "ink", "848": " exp", "849": " com", "850": " just", "851": " se", "852": "ie", "853": " water", "854": " sma", "855": "mall", "856": "uddenly", "857": " special", "858": "nna", "859": " proud", "860": " small", "861": " ra", "862": " \u00c3\u00a2", "863": " ball", "864": "ia", "865": "by", "866": " or", "867": " Jo", "868": " tr", "869": " eat", "870": " Jack", "871": " hugged", "872": " sorry", "873": "ving", "874": "etter", "875": "oud", "876": " because", "877": " need", "878": "ft", "879": "ran", "880": "oh", "881": " Sara", "882": " long", "883": "hn", "884": "ump", "885": " ta", "886": " off", "887": "mp", "888": "ched", "889": " fa", "890": " try", "891": " box", "892": "elf", "893": "ning", "894": "ile", "895": " nice", "896": "ank", "897": " each", "898": " flow", "899": "ast", "900": " pe", "901": " whi", "902": "ort", "903": " unt", "904": "ine", "905": "ntil", "906": " fo", "907": "Yes", "908": "ced", "909": " laug", "910": "ughed", "911": " ad", "912": " thanked", "913": " bear", "914": "vent", "915": " bet", "916": " many", "917": " beaut", "918": "imal", "919": "sel", "920": " So", "921": " anim", "922": " don", "923": "\n\nJ", "924": " best", "925": "able", "926": "uti", "927": " end", "928": "ady", "929": " Her", "930": "arm", "931": " love", "932": "ped", "933": " even", "934": " fas", "935": " let", "936": " kind", "937": " An", "938": " by", "939": "ngry", "940": " We", "941": " learned", "942": "urp", "943": "ct", "944": " sur", "945": " gard", "946": "arden", "947": "ered", "948": " C", "949": " col", "950": " dre", "951": " lots", "952": "iful", "953": "ucy", "954": "rong", "955": " lived", "956": " laughed", "957": " until", "958": " animal", "959": " better", "960": " garden", "961": " beautiful", "962": " Anna", "963": " His", "964": "lew", "965": "iny", "966": " sky", "967": " cle", "968": "self", "969": " che", "970": " way", "971": " bl", "972": " bra", "973": " careful", "974": "zed", "975": " two", "976": "pt", "977": " called", "978": "rave", "979": " come", "980": " fle", "981": " both", "982": " jump", "983": " hur", "984": " And", "985": "ase", "986": " wo", "987": " From", "988": " safe", "989": " smile", "990": " still", "991": "hy", "992": " shin", "993": "urt", "994": "ion", "995": "led", "996": "ass", "997": " hard", "998": "Let", "999": " its", "1000": " le", "1001": "When", "1002": " fam", "1003": " rep", "1004": "ane", "1005": "igh", "1006": " Mia", "1007": " loud", "1008": "\n\nBut", "1009": " de", "1010": " list", "1011": " dan", "1012": " stay", "1013": "What", "1014": " lea", "1015": " cu", "1016": " fin", "1017": " pa", "1018": "ting", "1019": "urpr", "1020": " walked", "1021": " surp", "1022": " Then", "1023": "imals", "1024": "other", "1025": " soon", "1026": " imp", "1027": "ger", "1028": "ell", "1029": " chi", "1030": " di", "1031": " fly", "1032": " ow", "1033": "ool", "1034": "hes", "1035": " explo", "1036": " red", "1037": "ople", "1038": " con", "1039": "ang", "1040": " going", "1041": "fore", "1042": "Thank", "1043": "dded", "1044": "ised", "1045": "lore", "1046": " bad", "1047": " kep", "1048": "ummy", "1049": " doll", "1050": " tur", "1051": " gra", "1052": "ished", "1053": " should", "1054": " na", "1055": " te", "1056": " brave", "1057": " surpr", "1058": " flew", "1059": " animals", "1060": " explore", "1061": " kept", "1062": " hurt", "1063": " family", "1064": " pla", "1065": " now", "1066": " ground", "1067": "cks", "1068": " When", "1069": " Lucy", "1070": "kay", "1071": " people", "1072": " P", "1073": " advent", "1074": " fore", "1075": "No", "1076": " feeling", "1077": "\n\nTom", "1078": " Bob", "1079": " noti", "1080": " before", "1081": "ticed", "1082": " cry", "1083": " walking", "1084": " keep", "1085": " book", "1086": " under", "1087": " door", "1088": "xt", "1089": " while", "1090": " pret", "1091": "That", "1092": " wind", "1093": " share", "1094": "ugh", "1095": " shiny", "1096": " dra", "1097": "weet", "1098": "lace", "1099": "ds", "1100": " nodded", "1101": " angry", "1102": " opened", "1103": "lied", "1104": "tty", "1105": " picked", "1106": "air", "1107": " repli", "1108": " ey", "1109": " give", "1110": " reac", "1111": " clean", "1112": " Suddenly", "1113": " stopped", "1114": " id", "1115": " noise", "1116": " cre", "1117": " game", "1118": "dea", "1119": " cli", "1120": " vo", "1121": "joy", "1122": "raw", "1123": "venture", "1124": "bbit", "1125": "ner", "1126": " ac", "1127": "illy", "1128": " G", "1129": " great", "1130": " mon", "1131": " quick", "1132": "gan", "1133": " fast", "1134": "memb", "1135": " looking", "1136": " jo", "1137": " dis", "1138": " gl", "1139": " bed", "1140": " rabb", "1141": " nex", "1142": " pain", "1143": " enj", "1144": " sl", "1145": " un", "1146": " wait", "1147": "\n\nH", "1148": " sti", "1149": " tou", "1150": " ama", "1151": "limb", "1152": " truck", "1153": " color", "1154": "ious", "1155": " reme", "1156": " replied", "1157": " pretty", "1158": " noticed", "1159": " idea", "1160": " adventure", "1161": " rabbit", "1162": " next", "1163": " enjoy", "1164": " climb", "1165": " rememb", "1166": "ves", "1167": " ch", "1168": " fish", "1169": " R", "1170": " year", "1171": "ser", "1172": " pict", "1173": "cture", "1174": "cket", "1175": " voice", "1176": " eyes", "1177": " walk", "1178": "art", "1179": " quickly", "1180": " John", "1181": " app", "1182": " hear", "1183": " wonder", "1184": " hands", "1185": " being", "1186": "pe", "1187": " after", "1188": "les", "1189": " right", "1190": " ever", "1191": " mor", "1192": " Dad", "1193": " \n\nS", "1194": " deli", "1195": " diff", "1196": "ears", "1197": "red", "1198": "us", "1199": " watch", "1200": "ures", "1201": "isy", "1202": " work", "1203": " near", "1204": " bri", "1205": " three", "1206": "lie", "1207": " forest", "1208": " clos", "1209": " tal", "1210": "Mom", "1211": " strong", "1212": " food", "1213": " blue", "1214": " everyone", "1215": " bre", "1216": "bbed", "1217": " been", "1218": "llow", "1219": "olly", "1220": " curi", "1221": "bye", "1222": " became", "1223": " Sue", "1224": "rious", "1225": " also", "1226": " flowers", "1227": " import", "1228": " listen", "1229": " mum", "1230": "aybe", "1231": " Sp", "1232": " place", "1233": " pr", "1234": "ined", "1235": " watched", "1236": " rain", "1237": " ru", "1238": "ffer", "1239": " laugh", "1240": " showed", "1241": " Jane", "1242": "ortant", "1243": "day", "1244": " us", "1245": "\n\nWhen", "1246": " use", "1247": " su", "1248": "irst", "1249": " sound", "1250": " sure", "1251": " squ", "1252": " N", "1253": " head", "1254": " think", "1255": " blo", "1256": " closer", "1257": " curious", "1258": " important", "1259": "ild", "1260": "ect", "1261": " mag", "1262": "\n\nSo", "1263": "zz", "1264": " ste", "1265": " where", "1266": " face", "1267": " okay", "1268": " br", "1269": " goodbye", "1270": " child", "1271": " follow", "1272": " differ", "1273": " high", "1274": " here", "1275": " per", "1276": "lease", "1277": "ze", "1278": " slide", "1279": "war", "1280": "ired", "1281": "Look", "1282": "aisy", "1283": " first", "1284": " has", "1285": "\n\nMom", "1286": " cont", "1287": " boat", "1288": "Can", "1289": "\n\nHe", "1290": " cl", "1291": " Mommy", "1292": " name", "1293": " bal", "1294": " bit", "1295": " sn", "1296": "itc", "1297": " store", "1298": " warm", "1299": "co", "1300": "inu", "1301": " \n\nA", "1302": " world", "1303": " tas", "1304": " tra", "1305": " As", "1306": " dress", "1307": "ull", "1308": " night", "1309": " began", "1310": "erent", "1311": " bright", "1312": " anymo", "1313": "more", "1314": "We", "1315": "ring", "1316": "tor", "1317": " fr", "1318": "med", "1319": " mean", "1320": " butter", "1321": " ask", "1322": "Lila", "1323": "ies", "1324": " open", "1325": " jumped", "1326": " z", "1327": " Spot", "1328": " story", "1329": "ohn", "1330": "rent", "1331": "nts", "1332": " cou", "1333": " flower", "1334": "zy", "1335": "rough", "1336": " grabbed", "1337": "ough", "1338": " forg", "1339": " fire", "1340": " throu", "1341": "ount", "1342": " tell", "1343": " happened", "1344": " really", "1345": " hopped", "1346": " helped", "1347": "andma", "1348": "outed", "1349": " lady", "1350": " fav", "1351": " sweet", "1352": " pare", "1353": " Da", "1354": " flo", "1355": " cook", "1356": " different", "1357": " anymore", "1358": " through", "1359": " parent", "1360": " our", "1361": " shouted", "1362": " sand", "1363": "unny", "1364": "ught", "1365": " fell", "1366": "ster", "1367": " glad", "1368": " draw", "1369": " am", "1370": " dro", "1371": " having", "1372": " close", "1373": " seen", "1374": " tired", "1375": " Let", "1376": " only", "1377": " mouse", "1378": " grass", "1379": " kitc", "1380": "itchen", "1381": "ak", "1382": " why", "1383": "\n\nSuddenly", "1384": " magic", "1385": " Daisy", "1386": " Sarah", "1387": "fully", "1388": " fill", "1389": "'r", "1390": " years", "1391": " ready", "1392": " worry", "1393": " fro", "1394": "rog", "1395": "rown", "1396": " soft", "1397": " cake", "1398": " rest", "1399": " reached", "1400": " rea", "1401": "rents", "1402": "ient", "1403": " brother", "1404": "ali", "1405": "eep", "1406": " done", "1407": "\n\nShe", "1408": " gi", "1409": "illed", "1410": " waved", "1411": "omet", "1412": "ts", "1413": "Hel", "1414": " bun", "1415": "ken", "1416": "ins", "1417": " din", "1418": " brea", "1419": " Everyone", "1420": "ather", "1421": " mar", "1422": "hind", "1423": "ater", "1424": " fix", "1425": "ash", "1426": " pond", "1427": " butterf", "1428": " himself", "1429": " birds", "1430": "Don", "1431": " surprise", "1432": " kid", "1433": " coming", "1434": " stick", "1435": "where", "1436": " behi", "1437": " running", "1438": "ons", "1439": " less", "1440": "der", "1441": " prin", "1442": "ation", "1443": " wood", "1444": " stop", "1445": "ary", "1446": "ries", "1447": "iss", "1448": " happily", "1449": "\n\nF", "1450": "\n\nBen", "1451": "lized", "1452": "ns", "1453": " Sally", "1454": " yummy", "1455": " worked", "1456": " kitchen", "1457": " parents", "1458": " behind", "1459": " realized", "1460": " bunny", "1461": " green", "1462": " set", "1463": "uff", "1464": " dark", "1465": " favor", "1466": "ometime", "1467": "Wow", "1468": " frog", "1469": "imes", "1470": " bug", "1471": " perf", "1472": " catch", "1473": " stran", "1474": " That", "1475": " \n\nLily", "1476": " sle", "1477": "cked", "1478": "orite", "1479": " sing", "1480": " yel", "1481": " ate", "1482": " Joe", "1483": "lu", "1484": " delic", "1485": " sme", "1486": "\n\nHer", "1487": " swim", "1488": " light", "1489": "ellow", "1490": " funny", "1491": " prom", "1492": " does", "1493": " pro", "1494": " cha", "1495": " carefully", "1496": " making", "1497": " touch", "1498": " used", "1499": " full", "1500": "leep", "1501": " swing", "1502": " \n", "1503": " rock", "1504": "reed", "1505": "long", "1506": " Can", "1507": "ower", "1508": " looks", "1509": " duck", "1510": "rel", "1511": "ren", "1512": " enjoyed", "1513": " another", "1514": " par", "1515": " learn", "1516": "tend", "1517": " remembered", "1518": " arri", "1519": " After", "1520": " ri", "1521": " anything", "1522": " top", "1523": " slow", "1524": " wonderful", "1525": "zing", "1526": " move", "1527": " Do", "1528": " cold", "1529": " trees", "1530": " cried", "1531": " doing", "1532": " prete", "1533": " wrong", "1534": " butterfly", "1535": " cla", "1536": " bag", "1537": " tea", "1538": " hat", "1539": " kids", "1540": " buy", "1541": " el", "1542": "Hello", "1543": " hole", "1544": " herself", "1545": " sees", "1546": "astle", "1547": " ve", "1548": "sy", "1549": " sat", "1550": "ret", "1551": "ph", "1552": " spot", "1553": " farm", "1554": " finished", "1555": " continu", "1556": "ometimes", "1557": " favorite", "1558": " yellow", "1559": " pretend", "1560": " tall", "1561": " build", "1562": " continued", "1563": " hill", "1564": " blocks", "1565": " wear", "1566": " friendly", "1567": "'ll", "1568": " arrived", "1569": " surprised", "1570": " mother", "1571": " cool", "1572": "\n\nL", "1573": " filled", "1574": " dri", "1575": " needed", "1576": " hid", "1577": " pap", "1578": " left", "1579": "\n\nTimmy", "1580": " held", "1581": " res", "1582": "room", "1583": "inally", "1584": " lesson", "1585": " lost", "1586": " mess", "1587": " window", "1588": " wished", "1589": " Benny", "1590": " \n\nJ", "1591": " picture", "1592": " children", "1593": " Em", "1594": " thank", "1595": " bow", "1596": " cars", "1597": "bo", "1598": " gent", "1599": " hold", "1600": " able", "1601": "\n\nSara", "1602": " moment", "1603": " agreed", "1604": " table", "1605": " snow", "1606": " floor", "1607": "come", "1608": " read", "1609": " air", "1610": " comp", "1611": " ice", "1612": " getting", "1613": " morning", "1614": "eal", "1615": " lion", "1616": "\n\nTim", "1617": " enough", "1618": "wards", "1619": " own", "1620": " spo", "1621": " In", "1622": " followed", "1623": " K", "1624": "aper", "1625": "cess", "1626": " someone", "1627": "ray", "1628": " trying", "1629": "ross", "1630": " poin", "1631": " far", "1632": " shi", "1633": "eddy", "1634": " There", "1635": "ated", "1636": " creat", "1637": " fox", "1638": " tight", "1639": " Now", "1640": " dinner", "1641": " mat", "1642": " fur", "1643": " broken", "1644": " delicious", "1645": " \n\nOne", "1646": " hair", "1647": " strange", "1648": "\n\nAs", "1649": " ju", "1650": " brou", "1651": "rought", "1652": " yes", "1653": "Tom", "1654": " scre", "1655": " perfect", "1656": " brought", "1657": " Lila", "1658": " gone", "1659": " amazing", "1660": " please", "1661": " vis", "1662": " few", "1663": "oring", "1664": " castle", "1665": "Mommy", "1666": " expl", "1667": "plor", "1668": "umb", "1669": " might", "1670": " forgot", "1671": " wh", "1672": " finally", "1673": " Jen", "1674": "\n\nAfter", "1675": " woods", "1676": "key", "1677": " dream", "1678": " arm", "1679": " met", "1680": " song", "1681": "\n\nThen", "1682": " mus", "1683": "enny", "1684": " deep", "1685": "irrel", "1686": " Molly", "1687": " pet", "1688": "orn", "1689": "ange", "1690": "stand", "1691": "ip", "1692": " squir", "1693": " sec", "1694": "uffy", "1695": " beach", "1696": "itten", "1697": " What", "1698": " underst", "1699": "eld", "1700": " dir", "1701": " leaves", "1702": " pat", "1703": " ballo", "1704": " else", "1705": "gon", "1706": "pping", "1707": " paper", "1708": " baby", "1709": "ling", "1710": "ps", "1711": " others", "1712": " tail", "1713": "hite", "1714": " scary", "1715": "luff", "1716": " books", "1717": " disa", "1718": " paint", "1719": "gg", "1720": "asure", "1721": " daddy", "1722": " This", "1723": "This", "1724": " everything", "1725": " ride", "1726": " cloud", "1727": " turned", "1728": " sig", "1729": " talk", "1730": " count", "1731": " joy", "1732": " break", "1733": " wasn", "1734": " bike", "1735": " fight", "1736": " likes", "1737": " colors", "1738": " pink", "1739": " amazed", "1740": " spl", "1741": " alone", "1742": " pictures", "1743": " whe", "1744": " waited", "1745": " won", "1746": " fl", "1747": " Jill", "1748": " \n\nH", "1749": " \n\nWhen", "1750": " Tommy", "1751": " stayed", "1752": " flying", "1753": "pes", "1754": " job", "1755": " moral", "1756": " understand", "1757": " squirrel", "1758": " white", "1759": "ance", "1760": " spark", "1761": " ele", "1762": "Oh", "1763": "thy", "1764": " side", "1765": "leph", "1766": " sear", "1767": " sometimes", "1768": " ear", "1769": " promised", "1770": "ment", "1771": " plan", "1772": " listened", "1773": " grow", "1774": "ually", "1775": " dr", "1776": "od", "1777": " music", "1778": " hot", "1779": " climbed", "1780": "man", "1781": " danger", "1782": " shared", "1783": " Amy", "1784": " belie", "1785": " wall", "1786": " towards", "1787": "lice", "1788": " hungry", "1789": " Billy", "1790": " To", "1791": "ix", "1792": " gu", "1793": " clot", "1794": "thes", "1795": "av", "1796": " grandma", "1797": " lake", "1798": "ence", "1799": "eter", "1800": "ucky", "1801": " living", "1802": " fall", "1803": " bigger", "1804": " makes", "1805": " hide", "1806": " wet", "1807": " most", "1808": " visit", "1809": " stepped", "1810": " slowly", "1811": "sw", "1812": "vy", "1813": "\n\nAnna", "1814": " ans", "1815": "Hi", "1816": " must", "1817": "Maybe", "1818": " hea", "1819": " \n\nM", "1820": " swa", "1821": " wants", "1822": " bee", "1823": " bath", "1824": "Why", "1825": "ister", "1826": " stre", "1827": " puppy", "1828": "\n\nJack", "1829": " magical", "1830": " disapp", "1831": "\n\nJohn", "1832": "\n\nSam", "1833": " bar", "1834": " dance", "1835": " All", "1836": " neigh", "1837": " silly", "1838": "ighb", "1839": "bby", "1840": " sleep", "1841": "iting", "1842": "bble", "1843": " pulled", "1844": "age", "1845": " bot", "1846": " cho", "1847": " faster", "1848": " mi", "1849": " balloon", "1850": "airy", "1851": "set", "1852": " thre", "1853": " happen", "1854": " real", "1855": " smiles", "1856": " clothes", "1857": " answ", "1858": " neighb", "1859": " heav", "1860": "iling", "1861": " Gr", "1862": " bla", "1863": " join", "1864": "ming", "1865": "est", "1866": " cut", "1867": " qui", "1868": " farmer", "1869": "ateful", "1870": " grate", "1871": " crying", "1872": " monster", "1873": " leave", "1874": "lack", "1875": "eared", "1876": " party", "1877": "ctor", "1878": " sit", "1879": " train", "1880": " helping", "1881": " worried", "1882": " eleph", "1883": "phant", "1884": "avy", "1885": " que", "1886": "ventually", "1887": "illa", "1888": " cup", "1889": " blan", "1890": "anket", "1891": " remember", "1892": " mix", "1893": " across", "1894": "less", "1895": "ches", "1896": "eces", "1897": " believe", "1898": " cra", "1899": " sister", "1900": "orm", "1901": " wel", "1902": " expla", "1903": " piec", "1904": " cream", "1905": " reach", "1906": " bran", "1907": "br", "1908": " pus", "1909": " thi", "1910": " dangerous", "1911": " wr", "1912": " young", "1913": " such", "1914": "tion", "1915": " cookies", "1916": " teddy", "1917": "ased", "1918": " fla", "1919": " field", "1920": "OK", "1921": " land", "1922": " lone", "1923": "onely", "1924": " dolls", "1925": " colorful", "1926": " exploring", "1927": "cle", "1928": "elcome", "1929": " orange", "1930": " Maybe", "1931": " acc", "1932": "Okay", "1933": " call", "1934": " secret", "1935": "shed", "1936": "\n\nHis", "1937": "ises", "1938": "rac", "1939": " race", "1940": " broke", "1941": "unch", "1942": " money", "1943": "igg", "1944": "lf", "1945": " gentle", "1946": " owl", "1947": "\n\nAt", "1948": " closed", "1949": " stuck", "1950": " words", "1951": " without", "1952": " clapped", "1953": " ob", "1954": "lling", "1955": " everywhere", "1956": " elephant", "1957": " black", "1958": " heavy", "1959": " grateful", "1960": " blanket", "1961": " pieces", "1962": " lonely", "1963": " mou", "1964": "outh", "1965": "ney", "1966": "cing", "1967": " stand", "1968": " same", "1969": "fort", "1970": " hig", "1971": " int", "1972": " \n\nF", "1973": " nap", "1974": "ident", "1975": " heal", "1976": " candy", "1977": " river", "1978": " treat", "1979": " suddenly", "1980": " doctor", "1981": " dragon", "1982": "assed", "1983": "ach", "1984": " da", "1985": " des", "1986": " sea", "1987": " seemed", "1988": " snack", "1989": " stone", "1990": " eating", "1991": " start", "1992": " bucket", "1993": " kite", "1994": " town", "1995": "Sure", "1996": " Daddy", "1997": " cour", "1998": " longer", "1999": " hor", "2000": "uit", "2001": " apple", "2002": "chool", "2003": " ins", "2004": " pers", "2005": "fused", "2006": " free", "2007": " quiet", "2008": "oot", "2009": " princess", "2010": "igher", "2011": " bite", "2012": "ats", "2013": "oun", "2014": " asks", "2015": " heart", "2016": " cheered", "2017": "vered", "2018": "itty", "2019": "pa", "2020": "luffy", "2021": " shoes", "2022": " tiny", "2023": " today", "2024": " shop", "2025": "Do", "2026": "ourse", "2027": " \n\nSo", "2028": " though", "2029": " bas", "2030": "tic", "2031": " swam", "2032": " sch", "2033": "cher", "2034": " adventures", "2035": " relie", "2036": " \n\nSuddenly", "2037": " hoped", "2038": " Tweet", "2039": " Fl", "2040": " card", "2041": " upset", "2042": " brown", "2043": " win", "2044": " wouldn", "2045": " jour", "2046": " carry", "2047": " bring", "2048": "icy", "2049": "asket", "2050": " dirty", "2051": " plant", "2052": " owner", "2053": "ored", "2054": " pot", "2055": "ead", "2056": " mouth", "2057": " higher", "2058": " course", "2059": " school", "2060": " basket", "2061": " along", "2062": " cave", "2063": " fruit", "2064": " pocket", "2065": " nearby", "2066": " Mr", "2067": " accident", "2068": " drove", "2069": " threw", "2070": " treasure", "2071": " twins", "2072": " welcome", "2073": " pushed", "2074": " colour", "2075": " fairy", "2076": " teacher", "2077": "yard", "2078": " cray", "2079": "\n\nFrom", "2080": " power", "2081": "ress", "2082": " pie", "2083": " caught", "2084": " explained", "2085": " backy", "2086": " thinks", "2087": "\n\nE", "2088": "ward", "2089": " bus", "2090": " naught", "2091": " pen", "2092": "never", "2093": " \n\nBut", "2094": " sail", "2095": "pper", "2096": " sou", "2097": " dropped", "2098": "ughty", "2099": " bowl", "2100": " Emma", "2101": " sunny", "2102": "ces", "2103": " games", "2104": " relieved", "2105": "ours", "2106": " lunch", "2107": " wings", "2108": " wish", "2109": "ible", "2110": " taking", "2111": " pack", "2112": " smart", "2113": "bow", "2114": " push", "2115": " carro", "2116": " pull", "2117": " laughing", "2118": " ce", "2119": " Fluffy", "2120": " yard", "2121": "tead", "2122": " turn", "2123": " tower", "2124": " gift", "2125": " dry", "2126": "gn", "2127": " moved", "2128": " woke", "2129": " wise", "2130": " late", "2131": " rainb", "2132": "oup", "2133": " belong", "2134": " swings", "2135": " boun", "2136": " dist", "2137": " pea", "2138": "dle", "2139": " life", "2140": " cor", "2141": " villa", "2142": " Ro", "2143": " pres", "2144": " es", "2145": " well", "2146": "top", "2147": " bush", "2148": "ten", "2149": " forget", "2150": " mine", "2151": " trou", "2152": "ber", "2153": " nothing", "2154": " je", "2155": "orrow", "2156": " backyard", "2157": " naughty", "2158": " rainbow", "2159": " soup", "2160": " shook", "2161": " stars", "2162": " pol", "2163": " bottle", "2164": " Jimmy", "2165": " touched", "2166": " ima", "2167": "ceful", "2168": "itting", "2169": " Mama", "2170": "\n\nMax", "2171": " fac", "2172": " busy", "2173": "gged", "2174": " Soon", "2175": " ben", "2176": " str", "2177": " rocks", "2178": " exciting", "2179": " sang", "2180": " Pe", "2181": " gigg", "2182": " runs", "2183": " path", "2184": "ountain", "2185": " throw", "2186": "issed", "2187": " leg", "2188": "ugg", "2189": "\u00c5\u0093I", "2190": " hon", "2191": " peace", "2192": "gs", "2193": " cir", "2194": " smiling", "2195": " sign", "2196": " neighbor", "2197": " mis", "2198": "zzy", "2199": " Grandma", "2200": " butto", "2201": " ret", "2202": "tur", "2203": "sting", "2204": " cozy", "2205": " noises", "2206": " sick", "2207": " miss", "2208": " Mary", "2209": "ughter", "2210": "andy", "2211": " inc", "2212": " days", "2213": " smell", "2214": "amp", "2215": " shapes", "2216": " Inside", "2217": " present", "2218": " val", "2219": "com", "2220": " \n\nHe", "2221": " holding", "2222": " singing", "2223": " whist", "2224": "board", "2225": "rp", "2226": " swimming", "2227": " eas", "2228": " fan", "2229": " watching", "2230": " tasted", "2231": " sli", "2232": " pudd", "2233": " chair", "2234": "oom", "2235": " feels", "2236": "em", "2237": " intere", "2238": "erest", "2239": " branch", "2240": "shine", "2241": " hit", "2242": "andpa", "2243": " Sammy", "2244": "mer", "2245": "mag", "2246": " mail", "2247": " \n\nHer", "2248": " drink", "2249": " cute", "2250": " war", "2251": " journey", "2252": " neck", "2253": " af", "2254": " shar", "2255": "thday", "2256": " retur", "2257": " turns", "2258": " rob", "2259": " disco", "2260": " monkey", "2261": " sunshine", "2262": " danced", "2263": " patient", "2264": " huge", "2265": " wondered", "2266": " pointed", "2267": "ness", "2268": "rm", "2269": "bot", "2270": " horse", "2271": "Of", "2272": " nose", "2273": " imag", "2274": " nest", "2275": " pig", "2276": " letter", "2277": "eak", "2278": " fit", "2279": " sitting", "2280": " juice", "2281": " round", "2282": " clouds", "2283": " \n\nAfter", "2284": "Hey", "2285": "idge", "2286": " bought", "2287": " hugs", "2288": " fair", "2289": "epend", "2290": " craw", "2291": " tom", "2292": " daughter", "2293": "gin", "2294": " twi", "2295": " jar", "2296": "ol", "2297": " purp", "2298": "ize", "2299": " birthday", "2300": " anyone", "2301": "John", "2302": "Ben", "2303": " bur", "2304": " joke", "2305": " accidentally", "2306": "Anna", "2307": " kno", "2308": "eek", "2309": " onto", "2310": "raid", "2311": " pass", "2312": " village", "2313": " comes", "2314": " organ", "2315": " fence", "2316": "alm", "2317": " adm", "2318": "Come", "2319": " sounds", "2320": " arms", "2321": " afra", "2322": "itch", "2323": "ls", "2324": " piece", "2325": " Emily", "2326": " sca", "2327": "hone", "2328": "ittens", "2329": "cer", "2330": " spid", "2331": " forever", "2332": "ized", "2333": " mist", "2334": " interesting", "2335": " lovely", "2336": " shr", "2337": " ph", "2338": " spin", "2339": "Sara", "2340": " Finally", "2341": " instead", "2342": " fron", "2343": "ont", "2344": "inute", "2345": " colle", "2346": " prac", "2347": "gani", "2348": " street", "2349": " sack", "2350": " which", "2351": " minu", "2352": " Come", "2353": "racti", "2354": "\n\n\u00c3\u00a2", "2355": " quest", "2356": " robot", "2357": " afraid", "2358": " front", "2359": " minute", "2360": " snowman", "2361": " driver", "2362": " coin", "2363": "rank", "2364": " spoon", "2365": " purple", "2366": " phone", "2367": " Jenny", "2368": " bench", "2369": " thin", "2370": " stories", "2371": " key", "2372": " question", "2373": " tow", "2374": "lebr", "2375": " wash", "2376": "blem", "2377": "oose", "2378": " lucky", "2379": " building", "2380": " ap", "2381": " lad", "2382": " pil", "2383": " cele", "2384": " suc", "2385": " meet", "2386": " eventually", "2387": " proble", "2388": " sug", "2389": "My", "2390": " hello", "2391": "ity", "2392": "\n\nD", "2393": " pool", "2394": " numb", "2395": " rolled", "2396": " shining", "2397": " gather", "2398": " resp", "2399": "ier", "2400": " grab", "2401": "ord", "2402": " Thank", "2403": " band", "2404": " hop", "2405": " Jake", "2406": "Now", "2407": " search", "2408": "\n\nBob", "2409": "fortable", "2410": " spotted", "2411": "ike", "2412": " pic", "2413": "cn", "2414": "nic", "2415": "adder", "2416": " spent", "2417": " uni", "2418": " wra", "2419": "cean", "2420": " spicy", "2421": " ski", "2422": " fold", "2423": " whole", "2424": "Good", "2425": " taste", "2426": "ail", "2427": " appeared", "2428": "\n\nLucy", "2429": "\n\nFinally", "2430": " oce", "2431": "ooth", "2432": " person", "2433": " splash", "2434": " searched", "2435": " smelled", "2436": "sp", "2437": " tasty", "2438": " kick", "2439": " wearing", "2440": " answer", "2441": " honey", "2442": " lar", "2443": " healthy", "2444": " clever", "2445": " talked", "2446": " shy", "2447": " crayons", "2448": " finish", "2449": " places", "2450": "ert", "2451": " sandwi", "2452": " asleep", "2453": "mind", "2454": " later", "2455": " inv", "2456": " celebr", "2457": " problem", "2458": " picnic", "2459": " ladder", "2460": " ocean", "2461": " talking", "2462": " bubble", "2463": "hile", "2464": "\n\nMommy", "2465": " \n\nL", "2466": " wild", "2467": " shout", "2468": " corner", "2469": " mach", "2470": " large", "2471": "In", "2472": "ittle", "2473": " With", "2474": " Some", "2475": " remind", "2476": " emb", "2477": " confused", "2478": " myster", "2479": " smooth", "2480": "gest", "2481": " hope", "2482": " sol", "2483": " nut", "2484": " kitten", "2485": "ular", "2486": " apples", "2487": " helpful", "2488": " lay", "2489": " \n\nFrom", "2490": " fing", "2491": " ye", "2492": " prote", "2493": "ball", "2494": " waiting", "2495": " screamed", "2496": " att", "2497": "inted", "2498": "ese", "2499": " feather", "2500": "mbar", "2501": "arr", "2502": " wide", "2503": " bugs", "2504": " write", "2505": " ser", "2506": " oven", "2507": " spider", "2508": " puddle", "2509": " blew", "2510": "oin", "2511": " egg", "2512": " \n\nAs", "2513": " plane", "2514": " cow", "2515": " rocket", "2516": " teach", "2517": " shir", "2518": "sterious", "2519": "usie", "2520": " whenever", "2521": " grou", "2522": "old", "2523": " disappo", "2524": " Together", "2525": "\n\nLater", "2526": " pile", "2527": " chest", "2528": " ign", "2529": " zoom", "2530": " tun", "2531": "\n\nMia", "2532": " matter", "2533": " storm", "2534": " ducks", "2535": " part", "2536": " forward", "2537": " furry", "2538": " gently", "2539": " Re", "2540": " O", "2541": " Just", "2542": "eterm", "2543": "airs", "2544": " puzz", "2545": " \n\nTimmy", "2546": " roar", "2547": "rt", "2548": " Be", "2549": "den", "2550": " takes", "2551": "ying", "2552": "ground", "2553": " deter", "2554": " impress", "2555": " breath", "2556": " embarr", "2557": " mysterious", "2558": " determ", "2559": " couch", "2560": " lem", "2561": " fixed", "2562": " Bo", "2563": " seek", "2564": " \n\nThey", "2565": " trouble", "2566": " feet", "2567": " carried", "2568": " king", "2569": " snake", "2570": " Kitty", "2571": "obby", "2572": "ult", "2573": "epy", "2574": "oe", "2575": " eager", "2576": " net", "2577": " drive", "2578": "fted", "2579": " shirt", "2580": " emp", "2581": " mind", "2582": " hidden", "2583": " wave", "2584": " glo", "2585": "read", "2586": "eadow", "2587": " group", "2588": "ama", "2589": " cheese", "2590": " powerful", "2591": " kiss", "2592": " \n\nB", "2593": " sne", "2594": " spa", "2595": " disappointed", "2596": " yelled", "2597": " pizz", "2598": " slee", "2599": " respect", "2600": " cr", "2601": " standing", "2602": "ag", "2603": "arrassed", "2604": " spre", "2605": " mil", "2606": " stood", "2607": " mead", "2608": " past", "2609": " fig", "2610": " cheer", "2611": " sharp", "2612": " last", "2613": "mpty", "2614": " fancy", "2615": " gas", "2616": " wheel", "2617": " calm", "2618": " med", "2619": "\n\nLila", "2620": "isa", "2621": " Johnny", "2622": " polite", "2623": "getable", "2624": "Be", "2625": " trip", "2626": " ber", "2627": "zza", "2628": " grew", "2629": "ace", "2630": " veget", "2631": " string", "2632": " mistake", "2633": " law", "2634": "ilk", "2635": " creature", "2636": " songs", "2637": " blow", "2638": "ashed", "2639": " tap", "2640": " shell", "2641": "vous", "2642": " pretended", "2643": " promise", "2644": " foot", "2645": " stir", "2646": " dancing", "2647": "ges", "2648": " Everywhere", "2649": "mon", "2650": " loves", "2651": " pop", "2652": " road", "2653": "Where", "2654": " sour", "2655": " mummy", "2656": " embarrassed", "2657": " spread", "2658": " meadow", "2659": " empty", "2660": " sleepy", "2661": " vegetable", "2662": " pizza", "2663": "ngle", "2664": " forgive", "2665": " hopping", "2666": " ple", "2667": " milk", "2668": "ks", "2669": "saur", "2670": " bell", "2671": "era", "2672": " TV", "2673": "ef", "2674": "urse", "2675": " sal", "2676": "hin", "2677": "Tim", "2678": "os", "2679": " tightly", "2680": " fra", "2681": "cles", "2682": " machine", "2683": " jung", "2684": " bat", "2685": "ato", "2686": " peaceful", "2687": " rac", "2688": " har", "2689": " hiding", "2690": " Even", "2691": " exam", "2692": " motor", "2693": " bread", "2694": " ner", "2695": "nders", "2696": " Sometimes", "2697": " self", "2698": " \nThe", "2699": " stud", "2700": "wel", "2701": "osa", "2702": " rude", "2703": " gives", "2704": " Pete", "2705": "ervous", "2706": " clear", "2707": " live", "2708": " mountain", "2709": " jew", "2710": " tid", "2711": " become", "2712": "hie", "2713": " ban", "2714": " trust", "2715": " ug", "2716": "gly", "2717": " mud", "2718": "ush", "2719": " sparkly", "2720": " zi", "2721": " mas", "2722": " slid", "2723": " fil", "2724": " supp", "2725": " vase", "2726": " gara", "2727": "arage", "2728": " match", "2729": "box", "2730": " jumping", "2731": " dirt", "2732": "\n\nMolly", "2733": " playground", "2734": " dino", "2735": "light", "2736": "ors", "2737": " mic", "2738": "icro", "2739": "flow", "2740": "Please", "2741": " success", "2742": "ual", "2743": " cap", "2744": " hours", "2745": "oman", "2746": " creative", "2747": " shake", "2748": "als", "2749": " circ", "2750": "are", "2751": " fighting", "2752": "aser", "2753": " rope", "2754": " cookie", "2755": "gy", "2756": " jungle", "2757": " nervous", "2758": " jewel", "2759": " ugly", "2760": " garage", "2761": " micro", "2762": " dinosaur", "2763": " woman", "2764": " determined", "2765": " sticks", "2766": " carrot", "2767": " whistle", "2768": " chick", "2769": "gu", "2770": " tu", "2771": " these", "2772": "lla", "2773": " tomorrow", "2774": " answered", "2775": " gen", "2776": " decor", "2777": "act", "2778": " Mittens", "2779": " chased", "2780": " selfish", "2781": " hum", "2782": " asking", "2783": "cken", "2784": " reg", "2785": " lemon", "2786": "iddle", "2787": " stret", "2788": " knocked", "2789": " save", "2790": " chew", "2791": " On", "2792": " minutes", "2793": " faces", "2794": "col", "2795": "\n\nAnd", "2796": " spray", "2797": " easy", "2798": " asha", "2799": "hamed", "2800": "lai", "2801": " wand", "2802": " ang", "2803": " bark", "2804": " knee", "2805": " paw", "2806": " bedroom", "2807": " \n\nHis", "2808": " balance", "2809": " skipped", "2810": "\n\nTommy", "2811": "ron", "2812": " sharing", "2813": " roll", "2814": " drew", "2815": " plants", "2816": " barked", "2817": " shelf", "2818": " sau", "2819": " seat", "2820": "mes", "2821": " pri", "2822": " block", "2823": " collect", "2824": " pan", "2825": " board", "2826": "anut", "2827": " weak", "2828": " pour", "2829": " returned", "2830": "cop", "2831": " whis", "2832": " Fred", "2833": "lies", "2834": " knowing", "2835": " mid", "2836": " \n\nT", "2837": "\n\nJust", "2838": " Susie", "2839": " pin", "2840": " glow", "2841": " excite", "2842": " Peter", "2843": " lift", "2844": "most", "2845": "ana", "2846": " police", "2847": " painting", "2848": " button", "2849": " gray", "2850": " Jim", "2851": " yourself", "2852": " protect", "2853": " landed", "2854": " tears", "2855": "ina", "2856": " chicken", "2857": " ashamed", "2858": " chocol", "2859": " hears", "2860": " swan", "2861": " ship", "2862": " test", "2863": " meant", "2864": " true", "2865": " giant", "2866": " practi", "2867": " excitement", "2868": " tee", "2869": "eeth", "2870": " passed", "2871": " almost", "2872": " marble", "2873": " shore", "2874": " wore", "2875": " middle", "2876": " giggled", "2877": " disappeared", "2878": " hosp", "2879": "spit", "2880": " goes", "2881": " whisp", "2882": " dogs", "2883": "flower", "2884": " line", "2885": "ependable", "2886": " plate", "2887": " \n\nJack", "2888": " unders", "2889": "ndersto", "2890": "tood", "2891": "ital", "2892": " gener", "2893": " father", "2894": " Mum", "2895": "umpy", "2896": " clow", "2897": " depend", "2898": " maybe", "2899": " fluffy", "2900": " market", "2901": " colourful", "2902": " coat", "2903": "ating", "2904": " hang", "2905": " snacks", "2906": " Mummy", "2907": "Sam", "2908": "ination", "2909": "colate", "2910": " missed", "2911": " unus", "2912": "usual", "2913": "pack", "2914": "ushed", "2915": " ant", "2916": "itter", "2917": " treats", "2918": " week", "2919": " towel", "2920": " Their", "2921": "\n\nIn", "2922": " glue", "2923": " tidy", "2924": " ed", "2925": "erous", "2926": " tells", "2927": "\n\nG", "2928": " knight", "2929": " Tweety", "2930": " gathered", "2931": " taken", "2932": " Don", "2933": " fear", "2934": " valu", "2935": " sailed", "2936": " expen", "2937": "pens", "2938": "sive", "2939": " bathroom", "2940": "\n\nP", "2941": " feed", "2942": " zoo", "2943": " march", "2944": " Bobby", "2945": " rid", "2946": " queen", "2947": " wagged", "2948": "cape", "2949": "\u00c5\u0093Let", "2950": " happening", "2951": " ter", "2952": " often", "2953": "ari", "2954": " cross", "2955": " tank", "2956": " teeth", "2957": " understood", "2958": " hospital", "2959": " chocolate", "2960": " unusual", "2961": " generous", "2962": " expensive", "2963": " cage", "2964": " twir", "2965": " sandwich", "2966": " necklace", "2967": " \n\nJohn", "2968": " rec", "2969": " pir", "2970": " poor", "2971": " penny", "2972": " stuff", "2973": " jeal", "2974": "ealous", "2975": "onest", "2976": " wagon", "2977": " calling", "2978": "eo", "2979": " flag", "2980": " Mar", "2981": " dependable", "2982": " av", "2983": "\n\nMum", "2984": " pointing", "2985": " figure", "2986": " pee", "2987": "port", "2988": "illi", "2989": " add", "2990": " thankful", "2991": "Stop", "2992": " thick", "2993": " worm", "2994": " peanut", "2995": " drawing", "2996": " nods", "2997": " smelly", "2998": " brush", "2999": " Please", "3000": " taught", "3001": " leaf", "3002": " saved", "3003": " terri", "3004": " pillow", "3005": " Lisa", "3006": " crab", "3007": " At", "3008": " waves", "3009": " Ne", "3010": " fake", "3011": " cloth", "3012": " mode", "3013": "ecially", "3014": " ok", "3015": " cri", "3016": " tag", "3017": " tunne", "3018": " moon", "3019": " lock", "3020": " puzzle", "3021": " anc", "3022": "cient", "3023": " covered", "3024": "\u00c5\u0093That", "3025": " esp", "3026": "peci", "3027": " measure", "3028": " realised", "3029": " dest", "3030": " drum", "3031": " bull", "3032": " vegetables", "3033": " Why", "3034": "There", "3035": " End", "3036": " weal", "3037": "\n\nR", "3038": " working", "3039": "unk", "3040": "sage", "3041": " bone", "3042": " class", "3043": " messy", "3044": " mana", "3045": "ire", "3046": "Who", "3047": " sight", "3048": " \n\nAt", "3049": "rated", "3050": "imp", "3051": "ove", "3052": " gold", "3053": " tent", "3054": "selves", "3055": "ured", "3056": " jealous", "3057": " ancient", "3058": " especially", "3059": " distance", "3060": " stones", "3061": " sil", "3062": " lazy", "3063": " incred", "3064": "zard", "3065": " moving", "3066": " ring", "3067": " content", "3068": " honest", "3069": " walks", "3070": " Teddy", "3071": " er", "3072": " ruined", "3073": " mir", "3074": "ror", "3075": " stronger", "3076": "illiant", "3077": " act", "3078": " change", "3079": " jam", "3080": " sweetie", "3081": " boring", "3082": " angel", "3083": "astic", "3084": " cann", "3085": "not", "3086": " pleased", "3087": " delight", "3088": "iness", "3089": " Little", "3090": "orge", "3091": " lying", "3092": " brilli", "3093": "\u00c5\u0093It", "3094": " boss", "3095": " bored", "3096": " picking", "3097": "ilt", "3098": " clay", "3099": " sold", "3100": " Mrs", "3101": " rough", "3102": " splashed", "3103": " check", "3104": " harm", "3105": "aby", "3106": " tro", "3107": " cam", "3108": " cher", "3109": "tom", "3110": " gun", "3111": " drank", "3112": "rop", "3113": "edient", "3114": " rad", "3115": " edge", "3116": "\n\nJane", "3117": " frust", "3118": "ustrated", "3119": " desig", "3120": " ent", "3121": "arn", "3122": "tory", "3123": " scr", "3124": "eor", "3125": " trave", "3126": "Your", "3127": " dish", "3128": " smaller", "3129": "Well", "3130": " obed", "3131": " deer", "3132": "iz", "3133": " yar", "3134": " mark", "3135": " questions", "3136": " soap", "3137": " cater", "3138": "erp", "3139": "pill", "3140": "illar", "3141": "irr", "3142": " seem", "3143": " comfortable", "3144": " zip", "3145": "land", "3146": " acce", "3147": " How", "3148": " discovered", "3149": "redible", "3150": " circles", "3151": "\n\nW", "3152": " ones", "3153": " ord", "3154": " medic", "3155": "lope", "3156": " cannot", "3157": " brilliant", "3158": " yarn", "3159": " caterpill", "3160": "pillar", "3161": " obedient", "3162": " frustrated", "3163": " mighty", "3164": " flash", "3165": "actus", "3166": " trucks", "3167": " clown", "3168": " pray", "3169": "eed", "3170": " rela", "3171": "lax", "3172": "race", "3173": " \n\nE", "3174": " legs", "3175": " excitedly", "3176": " managed", "3177": "\u00c5\u0093Yes", "3178": " enjoying", "3179": "\n\nEvery", "3180": "\u00c5\u0093What", "3181": "ghted", "3182": "live", "3183": "oof", "3184": "let", "3185": " goat", "3186": " medicine", "3187": " tape", "3188": " tig", "3189": " grandpa", "3190": " diffic", "3191": " spend", "3192": " thir", "3193": " once", "3194": " belonged", "3195": "hel", "3196": " exclai", "3197": "laimed", "3198": "asing", "3199": " wealthy", "3200": " eye", "3201": " painted", "3202": " sighed", "3203": "rous", "3204": " packed", "3205": " deligh", "3206": " incredible", "3207": " carrots", "3208": " note", "3209": " \n\nShe", "3210": " crown", "3211": " terrible", "3212": "eorge", "3213": " cact", "3214": " tries", "3215": " cab", "3216": "bin", "3217": " tunnel", "3218": " Z", "3219": "kin", "3220": "\n\nSoon", "3221": " choose", "3222": " using", "3223": " bushes", "3224": " mirror", "3225": "ject", "3226": "ache", "3227": " adventu", "3228": "urou", "3229": " safely", "3230": " needs", "3231": " organized", "3232": "hip", "3233": " crack", "3234": " Leo", "3235": " eraser", "3236": " puts", "3237": " Ducky", "3238": "oby", "3239": "icult", "3240": "\n\nSue", "3241": " clap", "3242": " dizzy", "3243": " uniqu", "3244": "que", "3245": " carp", "3246": "umsy", "3247": " print", "3248": "ately", "3249": "wor", "3250": " No", "3251": " Alice", "3252": " scarf", "3253": " hi", "3254": " square", "3255": "ony", "3256": " caterpillar", "3257": " relax", "3258": " exclaimed", "3259": " delighted", "3260": " cactus", "3261": " cabin", "3262": " adventurous", "3263": " difficult", "3264": " unique", "3265": "ano", "3266": " camera", "3267": " body", "3268": " oc", "3269": "keep", "3270": "eper", "3271": "vice", "3272": " crawled", "3273": " seed", "3274": " impressed", "3275": " suggest", "3276": " fridge", "3277": " walls", "3278": " grumpy", "3279": " scoo", "3280": "ond", "3281": " Ann", "3282": "\u00c5\u0093Let\u00c3\u00a2", "3283": " brightly", "3284": "ife", "3285": "umbled", "3286": " weird", "3287": " bridge", "3288": "loo", "3289": " pebble", "3290": " meal", "3291": " coins", "3292": "rec", "3293": " enve", "3294": " trop", "3295": " word", "3296": " wha", "3297": "head", "3298": " alre", "3299": "ready", "3300": " valuable", "3301": " finger", "3302": " cleaned", "3303": " above", "3304": " bitter", "3305": "\n\nTheir", "3306": " bees", "3307": " dolp", "3308": " Tweetie", "3309": " bottom", "3310": " reli", "3311": "lute", "3312": " giving", "3313": "Are", "3314": " delicate", "3315": " gets", "3316": " carpet", "3317": " kissed", "3318": "ola", "3319": "\n\nSarah", "3320": " step", "3321": " added", "3322": " squee", "3323": " grand", "3324": " turkey", "3325": " prince", "3326": " practice", "3327": " log", "3328": " desk", "3329": " scream", "3330": " boys", "3331": " jog", "3332": " skin", "3333": " fork", "3334": "etit", "3335": " dead", "3336": "und", "3337": "phy", "3338": " cop", "3339": "angar", "3340": "aroo", "3341": " Bu", "3342": " mixed", "3343": " straw", "3344": "ature", "3345": " kni", "3346": " scare", "3347": " rat", "3348": " mole", "3349": " comple", "3350": "oon", "3351": " rare", "3352": "olo", "3353": "ella", "3354": " compet", "3355": " bake", "3356": "keeper", "3357": " already", "3358": " trophy", "3359": "angaroo", "3360": " knife", "3361": " competit", "3362": " envelope", "3363": " mov", "3364": " kangar", "3365": " guil", "3366": "ilty", "3367": " beha", "3368": " wrapped", "3369": " dreaming", "3370": " refused", "3371": " swe", "3372": " gate", "3373": " leaving", "3374": " grown", "3375": "addy", "3376": " rich", "3377": " apolo", "3378": " bubbles", "3379": " berries", "3380": " balls", "3381": " fu", "3382": " reliable", "3383": " smo", "3384": "time", "3385": " sounded", "3386": " Ch", "3387": " numbers", "3388": " kinds", "3389": " sock", "3390": "olog", "3391": "og", "3392": " rode", "3393": " Snow", "3394": "Sorry", "3395": " branches", "3396": " successful", "3397": " escape", "3398": "moke", "3399": " ext", "3400": " snee", "3401": "resh", "3402": " Go", "3403": " nosy", "3404": " advice", "3405": " favour", "3406": " peeked", "3407": " neighbour", "3408": " reminded", "3409": " cover", "3410": " men", "3411": "They", "3412": " fool", "3413": " feathers", "3414": " nod", "3415": " loy", "3416": "oyal", "3417": " comb", "3418": " au", "3419": "unt", "3420": "Me", "3421": " gum", "3422": "isted", "3423": " closet", "3424": "hose", "3425": " If", "3426": "Jack", "3427": " may", "3428": "ourite", "3429": " rushed", "3430": " icy", "3431": " clumsy", "3432": " kindness", "3433": " cries", "3434": " explored", "3435": " record", "3436": " skip", "3437": " ind", "3438": " number", "3439": " stairs", "3440": "oolish", "3441": "uring", "3442": " belt", "3443": " stri", "3444": " pup", "3445": " invited", "3446": " wolf", "3447": " char", "3448": " bald", "3449": "acket", "3450": " guess", "3451": " team", "3452": " office", "3453": "ator", "3454": " While", "3455": " spun", "3456": " kangaroo", "3457": " guilty", "3458": " apolog", "3459": " loyal", "3460": " favourite", "3461": " foolish", "3462": " soar", "3463": " tough", "3464": "ubb", "3465": " loudly", "3466": " solve", "3467": " decide", "3468": " built", "3469": " useful", "3470": " borrow", "3471": " noisy", "3472": "issors", "3473": "ub", "3474": " salad", "3475": " shone", "3476": " Today", "3477": " flute", "3478": " smoke", "3479": " ears", "3480": " those", "3481": " extra", "3482": "berry", "3483": " ori", "3484": "rigin", "3485": "ginal", "3486": "rage", "3487": " buttons", "3488": " chan", "3489": " dig", "3490": "uggled", "3491": " resc", "3492": " dove", "3493": " bounce", "3494": " coco", "3495": " Sm", "3496": " dolphin", "3497": " learning", "3498": " ham", "3499": "\nThe", "3500": "body", "3501": " wis", "3502": "\n\nIt", "3503": " \n\nThen", "3504": " stu", "3505": " offered", "3506": " pay", "3507": " \n\nFinally", "3508": " pirate", "3509": " times", "3510": "anged", "3511": " attic", "3512": " dull", "3513": " hunt", "3514": "ates", "3515": " sciss", "3516": " jelly", "3517": " Grandpa", "3518": " Red", "3519": "mith", "3520": " otter", "3521": " sunflower", "3522": " horn", "3523": "host", "3524": " chain", "3525": " celebrate", "3526": "apa", "3527": " thinking", "3528": " suggested", "3529": "cycle", "3530": "umpet", "3531": " famous", "3532": " stream", "3533": "uli", "3534": " banana", "3535": "opard", "3536": " cart", "3537": " boxes", "3538": "Help", "3539": " searching", "3540": " showing", "3541": " gasped", "3542": " cheerful", "3543": " Ju", "3544": " Sandy", "3545": " slipped", "3546": " trump", "3547": " perform", "3548": " jacket", "3549": " flashlight", "3550": " cone", "3551": " moder", "3552": "coa", "3553": "lex", "3554": "test", "3555": "topus", "3556": " original", "3557": " scissors", "3558": " Smith", "3559": " trumpet", "3560": " cocoa", "3561": " warned", "3562": " glass", "3563": "\n\nOn", "3564": " lead", "3565": "See", "3566": "fast", "3567": " ending", "3568": " handle", "3569": " wire", "3570": " vi", "3571": " bags", "3572": "ghe", "3573": " Polly", "3574": " fruits", "3575": " corn", "3576": " modern", "3577": " leopard", "3578": " birdie", "3579": " load", "3580": " speed", "3581": " hurts", "3582": " octopus", "3583": " fright", "3584": " careless", "3585": "istent", "3586": " breakf", "3587": " beet", "3588": " playful", "3589": " bossy", "3590": " lights", "3591": " hats", "3592": " changed", "3593": " lifted", "3594": " proudly", "3595": " regular", "3596": " sailor", "3597": " sugar", "3598": " elder", "3599": " yell", "3600": " pear", "3601": " Snowy", "3602": " tiger", "3603": " ghost", "3604": " rubbed", "3605": "Here", "3606": " object", "3607": " hurry", "3608": " stumbled", "3609": " knows", "3610": " saying", "3611": " happiness", "3612": " turtle", "3613": "henever", "3614": " Dave", "3615": "dow", "3616": "aff", "3617": " serious", "3618": " harmless", "3619": " cus", "3620": " picks", "3621": " post", "3622": " zipper", "3623": " chase", "3624": "ream", "3625": "\n\nJill", "3626": "har", "3627": " arrow", "3628": " thoughtful", "3629": " forth", "3630": " gem", "3631": " yours", "3632": " persist", "3633": " wake", "3634": "How", "3635": " wro", "3636": "rote", "3637": "erable", "3638": " leash", "3639": " Whe", "3640": " lean", "3641": " map", "3642": " ax", "3643": "xe", "3644": " hive", "3645": " sorts", "3646": " yog", "3647": " unk", "3648": " cooking", "3649": "oots", "3650": " spag", "3651": "het", "3652": "tti", "3653": "ations", "3654": " Toby", "3655": " Mark", "3656": " breakfast", "3657": " wrote", "3658": " axe", "3659": " spaghe", "3660": "ghetti", "3661": " raced", "3662": "\n\nAmy", "3663": " graceful", "3664": " press", "3665": " screen", "3666": " doesn", "3667": "gers", "3668": " fresh", "3669": " alert", "3670": " allow", "3671": " beauty", "3672": " harder", "3673": " island", "3674": " My", "3675": " pale", "3676": " circle", "3677": " miserable", "3678": " Whenever", "3679": " telling", "3680": " stranger", "3681": " tummy", "3682": " candle", "3683": " enc", "3684": "cou", "3685": "nown", "3686": " lose", "3687": " hipp", "3688": "ppo", "3689": " elderly", "3690": " fier", "3691": "erce", "3692": "cope", "3693": "gging", "3694": " Rex", "3695": " oy", "3696": "\n\nJoe", "3697": "\n\nC", "3698": " cleaning", "3699": " wiped", "3700": " perm", "3701": "ugged", "3702": " chose", "3703": "\n\nSally", "3704": "orant", "3705": " raven", "3706": " camp", "3707": " fountain", "3708": " muse", "3709": "seum", "3710": " movie", "3711": " locked", "3712": " aunt", "3713": " bin", "3714": " pant", "3715": " cell", "3716": " themselves", "3717": " hoo", "3718": "oop", "3719": " moms", "3720": " Dan", "3721": " Grace", "3722": " kitty", "3723": " frightened", "3724": " loll", "3725": " uncom", "3726": "alf", "3727": " persistent", "3728": " stubb", "3729": "ubborn", "3730": " lizard", "3731": " Eventually", "3732": " prize", "3733": " ignor", "3734": " rice", "3735": "irit", "3736": " roof", "3737": " nuts", "3738": " chim", "3739": " trains", "3740": " patch", "3741": " carrying", "3742": "aste", "3743": " shape", "3744": " don\u00c3\u00a2", "3745": " stove", "3746": "llip", "3747": "ipop", "3748": " admired", "3749": " reind", "3750": "inde", "3751": "comfortable", "3752": " sudden", "3753": " \n\nAnd", "3754": " helps", "3755": "work", "3756": " spaghetti", "3757": " fierce", "3758": " museum", "3759": " hippo", "3760": " stubborn", "3761": " lollipop", "3762": " reinde", "3763": " uncomfortable", "3764": "cted", "3765": " cudd", "3766": " ignorant", "3767": "pot", "3768": " suit", "3769": " film", "3770": " chimney", "3771": " sni", "3772": " washed", "3773": "ither", "3774": " resta", "3775": "aur", "3776": "urant", "3777": " maze", "3778": " cricket", "3779": " goose", "3780": " microph", "3781": "phone", "3782": " spoke", "3783": " pump", "3784": " ways", "3785": " bloom", "3786": " handed", "3787": " imagined", "3788": "eer", "3789": " Papa", "3790": " placed", "3791": " led", "3792": " shut", "3793": " norm", "3794": "ormal", "3795": " thief", "3796": " frow", "3797": " enorm", "3798": "ormous", "3799": " van", "3800": " Bella", "3801": "render", "3802": " unknown", "3803": "ym", "3804": " shows", "3805": "iff", "3806": "llie", "3807": " dreams", "3808": " disg", "3809": "gust", "3810": "sty", "3811": " tie", "3812": " modest", "3813": " min", "3814": " metal", "3815": " ped", "3816": " ref", "3817": "loe", "3818": "ied", "3819": " rub", "3820": " OK", "3821": " friendship", "3822": "upid", "3823": " encou", "3824": "Tommy", "3825": " purse", "3826": " butterflies", "3827": " spirit", "3828": " dreamed", "3829": " surre", "3830": " tied", "3831": "ung", "3832": " gy", "3833": " Brown", "3834": " laund", "3835": " mixer", "3836": " hous", "3837": "ouses", "3838": "sie", "3839": " tire", "3840": " pepper", "3841": " Bobo", "3842": " whale", "3843": " ahead", "3844": " shopkeeper", "3845": " hung", "3846": " beetle", "3847": " parade", "3848": "inary", "3849": " rubb", "3850": " viol", "3851": "arian", "3852": " trash", "3853": " sof", "3854": " package", "3855": " guard", "3856": " restaurant", "3857": " microphone", "3858": " reindeer", "3859": " normal", "3860": " enormous", "3861": " sniff", "3862": " disgust", "3863": " surrender", "3864": " gym", "3865": " houses", "3866": " cupboard", "3867": " city", "3868": " design", "3869": " Your", "3870": "Max", "3871": " balloons", "3872": " counted", "3873": " against", "3874": " return", "3875": " quite", "3876": " U", "3877": " tru", "3878": " juicy", "3879": " inte", "3880": "tell", "3881": "llig", "3882": " ur", "3883": "year", "3884": " counting", "3885": " whispered", "3886": " crayon", "3887": " stupid", "3888": " laundry", "3889": " low", "3890": " potato", "3891": " Maria", "3892": "uddy", "3893": " env", "3894": " penc", "3895": "cil", "3896": " mush", "3897": " harsh", "3898": " hose", "3899": " peek", "3900": " beak", "3901": "berries", "3902": " saf", "3903": " couldn\u00c3\u00a2", "3904": " rules", "3905": " study", "3906": " sadly", "3907": "hood", "3908": "ached", "3909": " biggest", "3910": " mailbox", "3911": " kicked", "3912": " discover", "3913": "ames", "3914": " fingers", "3915": " create", "3916": " helme", "3917": " comet", "3918": " Cl", "3919": " violin", "3920": " shocked", "3921": " licked", "3922": " hay", "3923": " wander", "3924": " pilot", "3925": " louder", "3926": " surf", "3927": " George", "3928": " joined", "3929": " Joey", "3930": " stat", "3931": " eggs", "3932": "lue", "3933": "una", "3934": " screw", "3935": " rolling", "3936": "shroom", "3937": " agree", "3938": " shells", "3939": " reco", "3940": " rece", "3941": "cream", "3942": " learnt", "3943": "heart", "3944": " nature", "3945": " bent", "3946": " earth", "3947": " shine", "3948": "igent", "3949": " Would", "3950": " destro", "3951": "ills", "3952": " mama", "3953": " shadow", "3954": " sparkled", "3955": " spilled", "3956": " intellig", "3957": " pencil", "3958": " mushroom", "3959": "lligent", "3960": " statue", "3961": " scale", "3962": " popc", "3963": "corn", "3964": " oyster", "3965": " paste", "3966": " Ste", "3967": " Rose", "3968": "bled", "3969": " thirsty", "3970": " sweetheart", "3971": " pow", "3972": "ummer", "3973": " shaking", "3974": " growing", "3975": " rema", "3976": " space", "3977": " courage", "3978": "\n\nK", "3979": " independ", "3980": " complete", "3981": "uct", "3982": " ing", "3983": "ingred", "3984": "redient", "3985": " roared", "3986": " unpack", "3987": " libr", "3988": " frag", "3989": " missing", "3990": " cost", "3991": " sy", "3992": " laughs", "3993": " jolly", "3994": " fine", "3995": " troub", "3996": " disgusting", "3997": " recogn", "3998": "uper", "3999": "used", "4000": " pushing", "4001": " vide", "4002": " twirled", "4003": "achel", "4004": " Look", "4005": " impro", "4006": " compass", "4007": " \n\nMax", "4008": " it\u00c3\u00a2", "4009": "erry", "4010": "ision", "4011": "Yay", "4012": " colours", "4013": " stared", "4014": " son", "4015": " sofa", "4016": " bump", "4017": " hook", "4018": "tered", "4019": " organize", "4020": " competitive", "4021": " treas", "4022": " station", "4023": " falls", "4024": " Remy", "4025": "\n\nTo", "4026": " pole", "4027": "ience", "4028": " sep", "4029": "epar", "4030": "hion", "4031": " magne", "4032": " frame", "4033": " painter", "4034": " sauce", "4035": " point", "4036": " itself", "4037": " Al", "4038": " chu", "4039": "ubby", "4040": "ients", "4041": "\n\nEm", "4042": " destroy", "4043": " Ted", "4044": " reading", "4045": "stairs", "4046": " tools", "4047": " jokes", "4048": "tions", "4049": " four", "4050": " Baby", "4051": " spinning", "4052": "fish", "4053": "atter", "4054": " Nemo", "4055": " pengu", "4056": " intelligent", "4057": " popcorn", "4058": " ingredient", "4059": " troubled", "4060": " separ", "4061": " chubby", "4062": "redients", "4063": " kay", "4064": " second", "4065": " yet", "4066": "atch", "4067": " vie", "4068": "iew", "4069": " repair", "4070": "yer", "4071": " short", "4072": " barber", "4073": " drawer", "4074": " ash", "4075": " helmet", "4076": " nurse", "4077": " ordinary", "4078": " witch", "4079": "ines", "4080": " early", "4081": " nicely", "4082": " yaw", "4083": "castle", "4084": " nail", "4085": " pho", "4086": "hoto", "4087": " repe", "4088": " lamp", "4089": " pants", "4090": " Blue", "4091": " Alex", "4092": "cause", "4093": " meas", "4094": " closely", "4095": " lawy", "4096": " flex", "4097": " silver", "4098": " mem", "4099": "mor", "4100": " passport", "4101": " reve", "4102": " displ", "4103": "play", "4104": " dive", "4105": "\n\nBilly", "4106": " sword", "4107": " independent", "4108": "randma", "4109": " aftern", "4110": "noon", "4111": " impat", "4112": "bel", "4113": "elery", "4114": "erc", "4115": " dia", "4116": "iamo", "4117": "mond", "4118": " frowned", "4119": "ophie", "4120": " fragile", "4121": " notice", "4122": " charming", "4123": " sandc", "4124": " spoiled", "4125": " Where", "4126": " enth", "4127": "ison", "4128": " hero", "4129": " folder", "4130": " needle", "4131": " fuel", "4132": " hoop", "4133": "ining", "4134": " admire", "4135": " \n\nBob", "4136": " allowed", "4137": " chasing", "4138": " hadn", "4139": " anx", "4140": " finding", "4141": " seeds", "4142": " compassion", "4143": "veal", "4144": " base", "4145": " practiced", "4146": " hairy", "4147": "atient", "4148": " visited", "4149": " onion", "4150": "ek", "4151": " tear", "4152": " listening", "4153": " Sop", "4154": " jet", "4155": " distant", "4156": " ingredients", "4157": " view", "4158": " photo", "4159": " lawyer", "4160": " memor", "4161": " display", "4162": " afternoon", "4163": " diamond", "4164": " sandcastle", "4165": " reveal", "4166": " impatient", "4167": " cats", "4168": " cro", "4169": "\n\nMama", "4170": " ze", "4171": " treasures", "4172": " knot", "4173": " shoe", "4174": " compla", "4175": " enthus", "4176": "usi", "4177": " decorate", "4178": " tomato", "4179": " Rosie", "4180": "orilla", "4181": " pit", "4182": " Buddy", "4183": " envious", "4184": " poured", "4185": " stretch", "4186": " size", "4187": " cards", "4188": " eng", "4189": " flexible", "4190": " \n\nTom", "4191": " Andy", "4192": " mild", "4193": " brigh", "4194": " patter", "4195": " sleeping", "4196": " giggle", "4197": " I\u00c3\u00a2", "4198": " Kate", "4199": " wrap", "4200": " attracti", "4201": "ractive", "4202": " unlo", "4203": " cran", "4204": " dess", "4205": " art", "4206": " mel", "4207": " Bet", "4208": " Flo", "4209": " iron", "4210": " toile", "4211": "ilet", "4212": " driving", "4213": " windows", "4214": " humble", "4215": " vend", "4216": " ener", "4217": " steal", "4218": " summer", "4219": " anxious", "4220": " half", "4221": " Lola", "4222": " creatures", "4223": " anywhere", "4224": "\u00c5\u0093You", "4225": " starting", "4226": "wever", "4227": " shrimp", "4228": "ton", "4229": " split", "4230": "\u00c5\u0093It\u00c3\u00a2", "4231": "ucked", "4232": " riding", "4233": "essert", "4234": " task", "4235": " cheap", "4236": " avo", "4237": " towers", "4238": " stops", "4239": "Timmy", "4240": " gor", "4241": " shield", "4242": " super", "4243": "ween", "4244": " exper", "4245": "indy", "4246": " temp", "4247": " marched", "4248": " older", "4249": " trunk", "4250": "gine", "4251": " Everything", "4252": " filthy", "4253": "chan", "4254": " stretched", "4255": " means", "4256": " enthusi", "4257": " attractive", "4258": " toilet", "4259": " dessert", "4260": " gorilla", "4261": " engine", "4262": " shade", "4263": " football", "4264": " pretending", "4265": " rescue", "4266": "bra", "4267": " pra", "4268": " theater", "4269": "ley", "4270": " crazy", "4271": " papers", "4272": "Lilly", "4273": " starts", "4274": "vel", "4275": " trick", "4276": " Fin", "4277": "angle", "4278": " isn", "4279": "harlie", "4280": " shouldn", "4281": " nowhere", "4282": " country", "4283": " knob", "4284": " \n\nD", "4285": " cryst", "4286": " vine", "4287": "robe", "4288": " behave", "4289": " apprec", "4290": "reci", "4291": " poem", "4292": " crane", "4293": " travel", "4294": " bounced", "4295": " factory", "4296": " sticker", "4297": " brace", "4298": " spring", "4299": " triang", "4300": " vendor", "4301": " badly", "4302": " given", "4303": " human", "4304": " sunset", "4305": "Mama", "4306": "verse", "4307": " curt", "4308": "urtain", "4309": " glove", "4310": " Tr", "4311": " snuggled", "4312": " pad", "4313": " weather", "4314": " Tony", "4315": " polish", "4316": " somewhere", "4317": "cake", "4318": " sandwiches", "4319": " dishes", "4320": " flour", "4321": " reef", "4322": " thu", "4323": "under", "4324": " lightning", "4325": " hoc", "4326": "ckey", "4327": " kayak", "4328": " dug", "4329": " jug", "4330": " goal", "4331": " Are", "4332": " wishes", "4333": " strugg", "4334": " Bear", "4335": " further", "4336": "ince", "4337": "ense", "4338": " spell", "4339": " scold", "4340": " swinging", "4341": "bor", "4342": "Molly", "4343": " brothers", "4344": " exerc", "4345": " send", "4346": " muff", "4347": "big", "4348": "igail", "4349": "lid", "4350": " herb", "4351": " umb", "4352": "mbre", "4353": "kes", "4354": " grin", "4355": " micros", "4356": " appreci", "4357": " curtain", "4358": " hockey", "4359": "bigail", "4360": " umbre", "4361": " microscope", "4362": " stickers", "4363": " thunder", "4364": " soldier", "4365": " cree", "4366": " Cat", "4367": " nation", "4368": " popular", "4369": " lend", "4370": " hammer", "4371": " pumpkin", "4372": "lk", "4373": " \n\nLucy", "4374": " disag", "4375": " cur", "4376": " rose", "4377": " climbing", "4378": " gloom", "4379": " celery", "4380": " mechan", "4381": "chanic", "4382": "Mum", "4383": " gifted", "4384": " clapping", "4385": " boots", "4386": " holid", "4387": "liday", "4388": " Mil", "4389": "illie", "4390": "rella", "4391": "terin", "4392": "inarian", "4393": " costu", "4394": " \n\nLater", "4395": " examine", "4396": "mber", "4397": " truth", "4398": "ye", "4399": " oats", "4400": " drawings", "4401": " vehi", "4402": " symb", "4403": "mbol", "4404": " cherry", "4405": " raz", "4406": "zor", "4407": " reward", "4408": "ected", "4409": "\u00c5\u0093That\u00c3\u00a2", "4410": " steps", "4411": "iest", "4412": "reeze", "4413": " sell", "4414": " luck", "4415": " harbor", "4416": " fearful", "4417": "omy", "4418": " leaned", "4419": "Jimmy", "4420": "ado", "4421": " clock", "4422": " encoura", "4423": " sla", "4424": " squash", "4425": " mill", "4426": " cardboard", "4427": " rhin", "4428": "hino", "4429": "ocer", "4430": "ceros", "4431": "ses", "4432": " quar", "4433": " forgave", "4434": " coll", "4435": " knock", "4436": " berry", "4437": " burn", "4438": " hunter", "4439": " dishwa", "4440": "was", "4441": "sher", "4442": " veter", "4443": "\n\nAlice", "4444": "Go", "4445": " celebrated", "4446": " classroom", "4447": "place", "4448": " sent", "4449": " inst", "4450": " balan", "4451": "\n\nJimmy", "4452": "io", "4453": " Chloe", "4454": " brighter", "4455": " Give", "4456": " mechanic", "4457": " holiday", "4458": " umbrella", "4459": "terinarian", "4460": " symbol", "4461": " razor", "4462": " gloomy", "4463": " rhinocer", "4464": "oceros", "4465": " dishwasher", "4466": " veterin", "4467": "\n\nWhile", "4468": " prepa", "4469": "pare", "4470": " accept", "4471": " fat", "4472": "ric", "4473": "uss", "4474": " achie", "4475": " ig", "4476": " names", "4477": " anyway", "4478": " ended", "4479": " resist", "4480": " sheep", "4481": " hed", "4482": "dge", "4483": " boats", "4484": "inking", "4485": "ssible", "4486": " raining", "4487": " impressive", "4488": " dancer", "4489": "Give", "4490": "rise", "4491": " cabinet", "4492": " mule", "4493": " switch", "4494": "\n\nSpot", "4495": " creek", "4496": " Kim", "4497": " triangle", "4498": " inf", "4499": " between", "4500": " blin", "4501": "inked", "4502": "icer", "4503": " offer", "4504": " lively", "4505": " didn\u00c3\u00a2", "4506": "any", "4507": " trap", "4508": "une", "4509": " mask", "4510": " barn", "4511": "Thanks", "4512": " stack", "4513": "Because", "4514": " shoo", "4515": " motorcycle", "4516": "Ne", "4517": " obser", "4518": "per", "4519": " zebra", "4520": "book", "4521": " bandage", "4522": " tutor", "4523": " ten", "4524": " putting", "4525": " sunr", "4526": " wheat", "4527": "arry", "4528": " Steve", "4529": "az", "4530": " tick", "4531": " thanks", "4532": " rot", "4533": " avail", "4534": " video", "4535": " shel", "4536": " energy", "4537": "ents", "4538": " ador", "4539": "orable", "4540": " radio", "4541": " magnet", "4542": " known", "4543": "ging", "4544": " streng", "4545": "ngth", "4546": "Mummy", "4547": "\n\nMummy", "4548": " oak", "4549": "vers", "4550": " mes", "4551": " evening", "4552": " pair", "4553": " myst", "4554": "stery", "4555": " chickens", "4556": " rhinoceros", "4557": " veterinarian", "4558": " prepare", "4559": " hedge", "4560": " adorable", "4561": " strength", "4562": " mystery", "4563": " rug", "4564": " imagination", "4565": " trade", "4566": " library", "4567": " fishing", "4568": " thumb", "4569": " sub", "4570": " ants", "4571": " lions", "4572": " quarrel", "4573": " letters", "4574": " sink", "4575": " sunrise", "4576": " ticket", "4577": "Rea", "4578": " bouncing", "4579": " cer", "4580": "ereal", "4581": " chess", "4582": " bracelet", "4583": "case", "4584": "ngl", "4585": " magaz", "4586": " dea", "4587": "eaf", "4588": " weep", "4589": "uch", "4590": "ulu", "4591": "ucet", "4592": " Here", "4593": " available", "4594": " respectful", "4595": " blinked", "4596": " softly", "4597": " flame", "4598": " distur", "4599": "urb", "4600": " drop", "4601": " stirred", "4602": "uce", "4603": " compassionate", "4604": " por", "4605": " helpless", "4606": "unately", "4607": " twist", "4608": " seas", "4609": " eagerly", "4610": "sit", "4611": " igloo", "4612": " requ", "4613": " toast", "4614": " pun", "4615": " writing", "4616": "elds", "4617": "ceed", "4618": " comfort", "4619": " enthusiastic", "4620": " veil", "4621": " batter", "4622": " player", "4623": "gen", "4624": " thread", "4625": " bikes", "4626": " Luna", "4627": "lass", "4628": "azine", "4629": "If", "4630": " Ella", "4631": " backpack", "4632": "cut", "4633": " fireplace", "4634": " shrugged", "4635": " amaze", "4636": "zement", "4637": " Mike", "4638": " prov", "4639": " wing", "4640": "Is", "4641": " neat", "4642": "mand", "4643": "vest", "4644": "'ve", "4645": " wea", "4646": " St", "4647": " throwing", "4648": " hoping", "4649": " imagine", "4650": " furn", "4651": "nit", "4652": "iture", "4653": " cushion", "4654": " piano", "4655": "cha", "4656": " cereal", "4657": " disturb", "4658": " magazine", "4659": " amazement", "4660": " furniture", "4661": " ceiling", "4662": " apologized", "4663": " shouts", "4664": " collar", "4665": " holds", "4666": " crash", "4667": " vehicle", "4668": " gear", "4669": "bbie", "4670": " port", "4671": "Ow", "4672": " faucet", "4673": " separate", "4674": " welcom", "4675": " shoulder", "4676": "ora", "4677": " Rachel", "4678": " pedal", "4679": " Pa", "4680": " fasc", "4681": "\u00c5\u0093Look", "4682": " lip", "4683": " slides", "4684": " hall", "4685": " swamp", "4686": "enry", "4687": " lid", "4688": " See", "4689": " request", "4690": " airport", "4691": " suitc", "4692": " beef", "4693": " Sophie", "4694": " Abigail", "4695": " splashing", "4696": " tripped", "4697": " created", "4698": " fields", "4699": " counter", "4700": " breaks", "4701": "nam", "4702": " yac", "4703": "acht", "4704": " armcha", "4705": "chair", "4706": " Lilly", "4707": " shark", "4708": " tray", "4709": " skipping", "4710": " breat", "4711": " chamber", "4712": " holes", "4713": " \n\nMommy", "4714": " cooler", "4715": " penguin", "4716": " pal", "4717": "alace", "4718": " pipe", "4719": " sungl", "4720": "nglass", "4721": "asses", "4722": " pige", "4723": " croco", "4724": "cod", "4725": "dile", "4726": " deaf", "4727": " mistakes", "4728": " crawl", "4729": " breeze", "4730": " \n\nJust", "4731": " accep", "4732": "pted", "4733": " petals", "4734": " surround", "4735": "uded", "4736": " teleph", "4737": "lephone", "4738": " shouting", "4739": " stuffed", "4740": " crystal", "4741": " skir", "4742": " improve", "4743": " blowing", "4744": " flut", "4745": "urch", "4746": " skills", "4747": " whisper", "4748": " stage", "4749": " pand", "4750": "dom", "4751": " stamp", "4752": "gued", "4753": " cane", "4754": "cano", "4755": " succeed", "4756": " yacht", "4757": " armchair", "4758": " palace", "4759": " sunglasses", "4760": " crocodile", "4761": " accepted", "4762": " telephone", "4763": "tress", "4764": " beep", "4765": " Hel", "4766": " either", "4767": " comput", "4768": " waste", "4769": " Bird", "4770": " alarm", "4771": "cco", "4772": "coli", "4773": " journ", "4774": "gle", "4775": " bookcase", "4776": " Will", "4777": " pressed", "4778": " popped", "4779": " powder", "4780": " Li", "4781": "\n\nMary", "4782": " pastry", "4783": " meow", "4784": " resto", "4785": " appro", "4786": " fascin", "4787": " five", "4788": "udge", "4789": " James", "4790": " paid", "4791": " exercise", "4792": " floating", "4793": " heli", "4794": "licop", "4795": "copter", "4796": " chance", "4797": " shrink", "4798": " torn", "4799": " \n\nSam", "4800": "lier", "4801": " atten", "4802": "tention", "4803": " yoga", "4804": " trail", "4805": " beamed", "4806": " subway", "4807": "happy", "4808": " fog", "4809": " tuna", "4810": " restless", "4811": " happier", "4812": " grinned", "4813": " track", "4814": " matt", "4815": " dough", "4816": "ium", "4817": " pushes", "4818": " drops", "4819": "ero", "4820": " ink", "4821": " broc", "4822": "mend", "4823": "kers", "4824": " Mandy", "4825": " sweater", "4826": " sna", "4827": "ggy", "4828": " nobody", "4829": "right", "4830": " haircut", "4831": " melt", "4832": " quietly", "4833": " hut", "4834": "Would", "4835": " \nOne", "4836": " checked", "4837": " raft", "4838": " meeting", "4839": " chirp", "4840": " married", "4841": " belongs", "4842": " earli", "4843": " Freddy", "4844": " wandered", "4845": " shiver", "4846": " attach", "4847": " value", "4848": " weapon", "4849": " relaxed", "4850": " unha", "4851": " spr", "4852": " comf", "4853": " ornam", "4854": " marry", "4855": " Jerry", "4856": "ccoli", "4857": " helicopter", "4858": " attention", "4859": " mattress", "4860": " brocco", "4861": " earlier", "4862": " unhappy", "4863": " gain", "4864": " marbles", "4865": " apron", "4866": " pulls", "4867": " perfu", "4868": "fume", "4869": "form", "4870": " lawn", "4871": "anna", "4872": " wife", "4873": " recom", "4874": "commend", "4875": " journal", "4876": " elev", "4877": "vator", "4878": " pine", "4879": " cherries", "4880": "igz", "4881": " speak", "4882": " infant", "4883": " weigh", "4884": " admir", "4885": " pinch", "4886": " bean", "4887": "fortunately", "4888": "nstead", "4889": " ribb", "4890": " Frank", "4891": "mmed", "4892": "kele", "4893": " skirt", "4894": " headed", "4895": " jail", "4896": " Su", "4897": " bul", "4898": " jogged", "4899": " urge", "4900": " serve", "4901": " slipp", "4902": "ppery", "4903": " finds", "4904": " vol", "4905": " sneak", "4906": " poked", "4907": " notebook", "4908": " opens", "4909": " parro", "4910": "rot", "4911": " gro", "4912": " golf", "4913": " spoil", "4914": " scooter", "4915": "ppers", "4916": " Clara", "4917": " eagle", "4918": " shamp", "4919": "mpoo", "4920": " Jenna", "4921": " saving", "4922": " Lulu", "4923": " sandbox", "4924": " dressed", "4925": " perfectly", "4926": "ib", "4927": "Bob", "4928": " spike", "4929": " opera", "4930": " disc", "4931": "cuss", "4932": " dust", "4933": " supply", "4934": " incre", "4935": "llen", "4936": " tucked", "4937": "ulb", "4938": " remo", "4939": " floated", "4940": " shooting", "4941": "ait", "4942": " order", "4943": " sparkling", "4944": "lcano", "4945": "appy", "4946": "lve", "4947": " page", "4948": " church", "4949": "usty", "4950": " shakes", "4951": " lemonade", "4952": " stad", "4953": "adium", "4954": " vroom", "4955": " swung", "4956": " broccoli", "4957": " perfume", "4958": " recommend", "4959": " elevator", "4960": " slippery", "4961": " shampoo", "4962": " discuss", "4963": " bulb", "4964": " volcano", "4965": " stadium", "4966": " rubber", "4967": " struct", "4968": " grapes", "4969": " burning", "4970": " valley", "4971": "ggie", "4972": " flea", "4973": " cob", "4974": " puddles", "4975": "\n\nInside", "4976": " strawberry", "4977": " crow", "4978": " strai", "4979": "aight", "4980": " happens", "4981": " fallen", "4982": " understanding", "4983": " presents", "4984": " scolded", "4985": "anges", "4986": " feelings", "4987": "keleton", "4988": "Mia", "4989": " slept", "4990": " enter", "4991": " dar", "4992": " invest", "4993": "vestig", "4994": "igate", "4995": " simp", "4996": " pattern", "4997": " fought", "4998": " doors", "4999": " glowing", "5000": " cube", "5001": " cups", "5002": " tool", "5003": " surprises", "5004": " praised", "5005": "tain", "5006": " plastic", "5007": " disappear", "5008": " raise", "5009": " Milly", "5010": "owever", "5011": " palm", "5012": " washing", "5013": " seeing", "5014": " prune", "5015": "ucture", "5016": "ose", "5017": "ito", "5018": " lime", "5019": " falling", "5020": "\n\nThat", "5021": "Re", "5022": " sneeze", "5023": " prep", "5024": "And", "5025": " flapped", "5026": " case", "5027": " soil", "5028": " winter", "5029": " welcomed", "5030": " awe", "5031": " appla", "5032": " fort", "5033": " Instead", "5034": " bears", "5035": " chir", "5036": " squeeze", "5037": " ignored", "5038": " demand", "5039": " hesit", "5040": " skele", "5041": " porch", "5042": " wheels", "5043": " blueberry", "5044": " stro", "5045": " instr", "5046": "mm", "5047": " staff", "5048": " rush", "5049": "ues", "5050": " cand", "5051": "iction", "5052": "tionary", "5053": " capt", "5054": " avoc", "5055": " Josh", "5056": " straight", "5057": " structure", "5058": " investigate", "5059": "ictionary", "5060": " prevent", "5061": " taller", "5062": " Brownie", "5063": "Bye", "5064": " doggy", "5065": " Car", "5066": " barking", "5067": " parrot", "5068": "ites", "5069": " batht", "5070": "tub", "5071": " coff", "5072": "ffee", "5073": " seal", "5074": "hiskers", "5075": " insisted", "5076": " pigeon", "5077": "bbles", "5078": " cobwe", "5079": "web", "5080": " explain", "5081": " del", "5082": "elay", "5083": " worth", "5084": " below", "5085": " Charlie", "5086": " easier", "5087": "ising", "5088": " following", "5089": " Sha", "5090": "\n\nOnce", "5091": "\u00c5\u0093I\u00c3\u00a2", "5092": " ladyb", "5093": " settle", "5094": " pill", "5095": " Un", "5096": " squirrels", "5097": " twink", "5098": " incl", "5099": " message", "5100": " intro", "5101": "rod", "5102": " \nS", "5103": "\n\nDaisy", "5104": "\n\nGrandma", "5105": "ices", "5106": " solved", "5107": " apart", "5108": "nie", "5109": " hanging", "5110": " itch", "5111": "ield", "5112": " baseball", "5113": " paused", "5114": " suitcase", "5115": " pur", "5116": " laughter", "5117": " crossed", "5118": " diction", "5119": " golden", "5120": "iv", "5121": " grabs", "5122": " hopes", "5123": " sort", "5124": " Help", "5125": " rooms", "5126": " napkin", "5127": " Is", "5128": "ission", "5129": " support", "5130": " computer", "5131": " Whis", "5132": "zie", "5133": "azz", "5134": " copper", "5135": " regret", "5136": "squ", "5137": " paws", "5138": " sprayed", "5139": " Elly", "5140": "inky", "5141": " warning", "5142": " Annie", "5143": " Bill", "5144": " neighbourhood", "5145": " conf", "5146": "nfortunately", "5147": " rabbits", "5148": "mmedi", "5149": "iately", "5150": " tip", "5151": " skeleton", "5152": " growled", "5153": " May", "5154": "zer", "5155": " eff", "5156": " bathtub", "5157": " coffee", "5158": " cobweb", "5159": " delay", "5160": " introd", "5161": " dictionary", "5162": "mmediately", "5163": " rise", "5164": " chat", "5165": "Will", "5166": " destroyed", "5167": " waving", "5168": "looking", "5169": " patiently", "5170": " barrel", "5171": " destination", "5172": " captain", "5173": " lives", "5174": " blackboard", "5175": " burned", "5176": "edy", "5177": " barks", "5178": " appreciate", "5179": " socks", "5180": "keys", "5181": " manage", "5182": " permission", "5183": " firef", "5184": " diary", "5185": " sniffed", "5186": " decorations", "5187": " Whiskers", "5188": " superhe", "5189": "hero", "5190": "Ouch", "5191": "member", "5192": " strawberries", "5193": " frown", "5194": " struggling", "5195": " crawling", "5196": " revealed", "5197": " fascinated", "5198": " lands", "5199": "mother", "5200": " ringing", "5201": " \n\n\u00c3\u00a2", "5202": " \n\nP", "5203": " whistling", "5204": " effort", "5205": " entered", "5206": " twig", "5207": "aded", "5208": " setting", "5209": " collecting", "5210": " spade", "5211": " unite", "5212": " yawned", "5213": " therm", "5214": "rmomet", "5215": "ometer", "5216": " pride", "5217": " smells", "5218": " newsp", "5219": " begged", "5220": " fireman", "5221": " meat", "5222": " soc", "5223": "ccer", "5224": " spending", "5225": " paints", "5226": " olive", "5227": " Me", "5228": " poppy", "5229": " mop", "5230": " sport", "5231": "ayla", "5232": " radish", "5233": " Cindy", "5234": " scur", "5235": "res", "5236": " disagreed", "5237": " toes", "5238": " oas", "5239": "asis", "5240": " approached", "5241": "antly", "5242": " chirped", "5243": " alive", "5244": "\n\nDad", "5245": " cooked", "5246": " mys", "5247": "yself", "5248": " hills", "5249": " sir", "5250": " gust", "5251": " quit", "5252": " kindly", "5253": " slip", "5254": "nies", "5255": " bravely", "5256": " superhero", "5257": " thermometer", "5258": " soccer", "5259": " oasis", "5260": " myself", "5261": " blouse", "5262": "alph", "5263": " sett", "5264": " \n\nR", "5265": "plane", "5266": " carto", "5267": " fis", "5268": " kneel", "5269": " frogs", "5270": " wags", "5271": " scratch", "5272": "ian", "5273": " giraff", "5274": " uniform", "5275": " elephants", "5276": " buck", "5277": " poison", "5278": " oat", "5279": " Frog", "5280": " strip", "5281": " chewed", "5282": " news", "5283": " agreement", "5284": " \n\nIn", "5285": " Let\u00c3\u00a2", "5286": " Fo", "5287": " memories", "5288": " fut", "5289": "uture", "5290": " \n\nEvery", "5291": " arg", "5292": " oranges", "5293": " squeezed", "5294": " Have", "5295": " zoomed", "5296": "ws", "5297": "Ok", "5298": " ward", "5299": "ardrobe", "5300": " Henry", "5301": "ety", "5302": "sters", "5303": " ide", "5304": "deas", "5305": " zigz", "5306": " yield", "5307": "These", "5308": " acti", "5309": "ath", "5310": "aked", "5311": " jeep", "5312": " experience", "5313": " leak", "5314": " mention", "5315": " collected", "5316": " deliver", "5317": " plates", "5318": " melon", "5319": " grill", "5320": " chairs", "5321": " peanuts", "5322": " points", "5323": " monkeys", "5324": " club", "5325": " cauli", "5326": " pastel", "5327": " jazz", "5328": " measuring", "5329": " tide", "5330": " medal", "5331": " Jess", "5332": " Next", "5333": "ighed", "5334": " wipe", "5335": " permit", "5336": " dear", "5337": " cutting", "5338": "\u00c5\u0093Can", "5339": "umber", "5340": " remained", "5341": " warmth", "5342": " waist", "5343": " lang", "5344": "angu", "5345": " decision", "5346": " chirping", "5347": " freezer", "5348": " sailing", "5349": " buzz", "5350": " panda", "5351": "ases", "5352": " planet", "5353": "aking", "5354": "Next", "5355": " observe", "5356": " future", "5357": " wardrobe", "5358": " ideas", "5359": " langu", "5360": " shelter", "5361": " \n\nSara", "5362": " perched", "5363": "sing", "5364": " avocado", "5365": " rag", "5366": " equ", "5367": " complain", "5368": " poke", "5369": " item", "5370": " quack", "5371": " signs", "5372": " cows", "5373": " trusted", "5374": " gloves", "5375": " matches", "5376": " puzzles", "5377": " costume", "5378": " banan", "5379": "anas", "5380": " gifts", "5381": " dresses", "5382": " Buzz", "5383": "annah", "5384": "\n\nPe", "5385": " tooth", "5386": " villagers", "5387": " fastest", "5388": " neighbors", "5389": " float", "5390": "\n\nBenny", "5391": " alright", "5392": " forgotten", "5393": "\u00c5\u0093No", "5394": " zipped", "5395": " since", "5396": " Who", "5397": " planted", "5398": " \n\nSoon", "5399": "\u00c5\u0093Hello", "5400": "ults", "5401": " crib", "5402": " Danny", "5403": " immediately", "5404": "atched", "5405": " brick", "5406": " simple", "5407": " snapped", "5408": "seek", "5409": " weeks", "5410": " shoot", "5411": " examined", "5412": " bumped", "5413": "arah", "5414": " spoons", "5415": " pages", "5416": "\n\nAnn", "5417": " easily", "5418": " deeper", "5419": " Millie", "5420": "cakes", "5421": " velve", "5422": "lvet", "5423": " surrounded", "5424": "iding", "5425": "lend", "5426": " dried", "5427": " missile", "5428": " sigh", "5429": " throws", "5430": " sings", "5431": "Did", "5432": " newspaper", "5433": " worse", "5434": " True", "5435": " peppers", "5436": " stitch", "5437": " Bunny", "5438": " jogging", "5439": "ulia", "5440": " ost", "5441": "stri", "5442": "rich", "5443": " begin", "5444": " receive", "5445": " weighed", "5446": " \n\nC", "5447": " clearing", "5448": " choice", "5449": " pretti", "5450": " admiring", "5451": " Th", "5452": " company", "5453": "reshed", "5454": "oral", "5455": "anger", "5456": " bananas", "5457": " \n\nSarah", "5458": " velvet", "5459": " ostrich", "5460": " Its", "5461": " vent", "5462": " \n\nG", "5463": "ction", "5464": " respon", "5465": "\n\nJenny", "5466": " jumps", "5467": "omed", "5468": "xc", "5469": " muffin", "5470": " daisy", "5471": " lily", "5472": " blankets", "5473": " bathe", "5474": " downstairs", "5475": " sausage", "5476": " shed", "5477": " ignore", "5478": " scooped", "5479": " sparkles", "5480": " possible", "5481": " candles", "5482": " som", "5483": " suffer", "5484": " salt", "5485": " nightma", "5486": " planes", "5487": " plays", "5488": " fisher", "5489": "herman", "5490": "attered", "5491": " aw", "5492": " siz", "5493": "izes", "5494": " pulling", "5495": " waff", "5496": " encouraged", "5497": "enty", "5498": " cauliflower", "5499": " quiz", "5500": " Beth", "5501": " Chi", "5502": "\n\nJen", "5503": " birdca", "5504": "cage", "5505": " twisted", "5506": " difference", "5507": " remembers", "5508": "isten", "5509": " emer", "5510": " Each", "5511": " chores", "5512": " reali", "5513": " refreshed", "5514": " balancing", "5515": " thr", "5516": " argue", "5517": " bury", "5518": "ler", "5519": " grandmother", "5520": " \n\nTo", "5521": "ived", "5522": "\n\nBe", "5523": "aces", "5524": " sheet", "5525": " People", "5526": " rested", "5527": " ribbon", "5528": " rang", "5529": " tricks", "5530": " upstairs", "5531": "Wait", "5532": " massage", "5533": "night", "5534": "lings", "5535": " hearts", "5536": "mare", "5537": " castles", "5538": " \n\nIt", "5539": " cliff", "5540": " keeping", "5541": "men", "5542": " flies", "5543": " Lee", "5544": " tug", "5545": " lick", "5546": " guit", "5547": "itar", "5548": " sprink", "5549": " buckle", "5550": " score", "5551": "tery", "5552": " Sad", "5553": " Floppy", "5554": " \n\nW", "5555": "hyth", "5556": " fisherman", "5557": " sizes", "5558": " birdcage", "5559": " guitar", "5560": "hythm", "5561": " yogurt", "5562": " pupil", "5563": "\u00c5\u0093We", "5564": " Tina", "5565": " mittens", "5566": " mosqu", "5567": "squito", "5568": " pastels", "5569": " Liz", "5570": "igi", "5571": " fixing", "5572": " tasks", "5573": "eside", "5574": " tore", "5575": " lumber", "5576": " Paul", "5577": "\u00c5\u0093Mommy", "5578": " eaten", "5579": " \n\nMummy", "5580": " reverse", "5581": " \n\nJimmy", "5582": " bicycle", "5583": " safety", "5584": " heads", "5585": "\n\nEmma", "5586": " sunlight", "5587": " appear", "5588": " sneezed", "5589": " \n\nTommy", "5590": " Everyday", "5591": " attached", "5592": " problems", "5593": " laser", "5594": "bbled", "5595": " settled", "5596": " blueberries", "5597": " vac", "5598": " rod", "5599": " nightmare", "5600": " Betty", "5601": "To", "5602": " scattered", "5603": " sore", "5604": " proper", "5605": " helper", "5606": " greedy", "5607": " follows", "5608": "ides", "5609": " hurting", "5610": " tong", "5611": " trapped", "5612": " sticky", "5613": " wagging", "5614": " hom", "5615": "omes", "5616": "house", "5617": " breathe", "5618": "ups", "5619": " shovel", "5620": " lic", "5621": "cense", "5622": " V", "5623": "Yum", "5624": " Julie", "5625": " lie", "5626": " Hop", "5627": "utty", "5628": "ory", "5629": " boot", "5630": "\n\nTogether", "5631": " vest", "5632": "walk", "5633": " recognize", "5634": " bottles", "5635": " sip", "5636": " crept", "5637": "\n\nEventually", "5638": " bes", "5639": "\n\nThis", "5640": " \n\nMum", "5641": " Joy", "5642": "omas", "5643": " \n\nMolly", "5644": " \n\nTim", "5645": " muscles", "5646": " \n\nMama", "5647": " accom", "5648": " provide", "5649": " hanger", "5650": " remain", "5651": "dled", "5652": " bringing", "5653": " onwards", "5654": " moments", "5655": " sparkle", "5656": " mosquito", "5657": " homes", "5658": " license", "5659": " beside", "5660": "umble", "5661": " wigg", "5662": " spaces", "5663": " benea", "5664": "eath", "5665": " rides", "5666": " happiest", "5667": " model", "5668": " unlock", "5669": " tremb", "5670": " Someone", "5671": " Once", "5672": " shadows", "5673": " drinking", "5674": " Before", "5675": " contin", "5676": "inue", "5677": " bouncy", "5678": " whistled", "5679": " fest", "5680": "osed", "5681": " heel", "5682": " equip", "5683": "ipment", "5684": " jellyfish", "5685": " scatter", "5686": " watches", "5687": " reaches", "5688": " kisses", "5689": "Jill", "5690": " Or", "5691": " parts", "5692": " caring", "5693": " Zoom", "5694": "oey", "5695": "ikey", "5696": "tel", "5697": "vision", "5698": " shower", "5699": " Pat", "5700": "anta", "5701": " peach", "5702": " Betsy", "5703": "rpy", "5704": "\n\nNow", "5705": "kins", "5706": " weight", "5707": " moves", "5708": " soaring", "5709": "\u00c5\u0093Thank", "5710": "Qu", "5711": " rake", "5712": " mug", "5713": " let\u00c3\u00a2", "5714": " meowed", "5715": " selling", "5716": "uckily", "5717": " language", "5718": " claws", "5719": " menu", "5720": " ordered", "5721": "\n\nLittle", "5722": " achieve", "5723": "do", "5724": " crunch", "5725": " obey", "5726": " figured", "5727": "sages", "5728": " hurried", "5729": " contain", "5730": " instruc", "5731": " pillows", "5732": " vacation", "5733": " none", "5734": " pancakes", "5735": " heat", "5736": "stiv", "5737": " suppo", "5738": " navy", "5739": " Big", "5740": "gull", "5741": " mint", "5742": "saw", "5743": "riage", "5744": " zooming", "5745": "reen", "5746": " ox", "5747": "xy", "5748": "ygen", "5749": " makeup", "5750": " jewelry", "5751": " explor", "5752": " marching", "5753": " Rob", "5754": "iel", "5755": " lab", "5756": " beneath", "5757": " continue", "5758": " equipment", "5759": " festiv", "5760": " supposed", "5761": " oxygen", "5762": " prayed", "5763": " battery", "5764": " pitch", "5765": "orns", "5766": " Ellie", "5767": " label", "5768": " wool", "5769": "icky", "5770": " root", "5771": " Je", "5772": " Bubbles", "5773": "elly", "5774": "ik", "5775": " sled", "5776": " recognized", "5777": " jewels", "5778": " overjoy", "5779": "joyed", "5780": " cauti", "5781": " discovery", "5782": "\n\nEveryone", "5783": " restore", "5784": " visiting", "5785": " accompl", "5786": " buried", "5787": "osity", "5788": " practicing", "5789": " neighborhood", "5790": " famil", "5791": " challen", "5792": " skull", "5793": " prepared", "5794": "laire", "5795": "amb", "5796": " \n\nMom", "5797": " tease", "5798": " anch", "5799": "chor", "5800": " direc", "5801": " included", "5802": " baking", "5803": "lt", "5804": "omeday", "5805": " shot", "5806": " ornaments", "5807": " lotion", "5808": "ival", "5809": " machines", "5810": " seagull", "5811": " items", "5812": " pearl", "5813": " cheek", "5814": " calend", "5815": "lendar", "5816": " spit", "5817": "Or", "5818": " apologize", "5819": " repeat", "5820": " sting", "5821": " cuddle", "5822": " pirates", "5823": "ushes", "5824": " giraffe", "5825": " loaded", "5826": " wallet", "5827": " sliding", "5828": "udy", "5829": " Buzzy", "5830": "vid", "5831": " invite", "5832": " hate", "5833": " drain", "5834": " tele", "5835": "levision", "5836": "\n\nEmily", "5837": " pasta", "5838": " Robby", "5839": " Mic", "5840": " Maggie", "5841": " ble", "5842": " dais", "5843": "isies", "5844": " basketball", "5845": " judge", "5846": "oppy", "5847": "Remember", "5848": " sidewalk", "5849": " flav", "5850": "mble", "5851": "\u00c5\u0093Oh", "5852": "\u00c5\u0093Why", "5853": " Later", "5854": " mudd", "5855": "ddy", "5856": " overjoyed", "5857": " anchor", "5858": " festival", "5859": " calendar", "5860": " television", "5861": " daisies", "5862": " muddy", "5863": " digg", "5864": "igging", "5865": " folded", "5866": " letting", "5867": " received", "5868": "\n\nPeter", "5869": " satis", "5870": "isf", "5871": "ping", "5872": " reminder", "5873": " cuddled", "5874": " wanting", "5875": " \n\nJoe", "5876": " vet", "5877": " twigs", "5878": " instructions", "5879": " stable", "5880": " yucky", "5881": "orted", "5882": " believed", "5883": " argued", "5884": " crashed", "5885": " God", "5886": " mailman", "5887": " bye", "5888": " bother", "5889": " shopping", "5890": " dare", "5891": " petted", "5892": "imi", "5893": " warn", "5894": "Really", "5895": " cable", "5896": "Billy", "5897": " \n\nJane", "5898": " grey", "5899": "\u00c5\u0093Don", "5900": "\n\nMark", "5901": " Chr", "5902": "Yuck", "5903": " measured", "5904": "rely", "5905": " memory", "5906": " becom", "5907": "\n\nWith", "5908": " ventured", "5909": " Always", "5910": " spear", "5911": " monsters", "5912": " grace", "5913": " flutter", "5914": " zigzag", "5915": " curtains", "5916": "lowly", "5917": " soared", "5918": " giggling", "5919": " replace", "5920": "onight", "5921": " someday", "5922": " panic", "5923": " activ", "5924": " respons", "5925": " properly", "5926": " bill", "5927": " licks", "5928": "fied", "5929": " roaring", "5930": " waits", "5931": " Like", "5932": " tune", "5933": " tour", "5934": "ding", "5935": " writes", "5936": "ages", "5937": " calls", "5938": " tongue", "5939": "ays", "5940": " rescu", "5941": " Mat", "5942": " tube", "5943": " stirring", "5944": " starfish", "5945": " punish", "5946": " Bun", "5947": " coal", "5948": " Julia", "5949": "\n\nMandy", "5950": " Froggy", "5951": " Jan", "5952": " Kayla", "5953": " wizard", "5954": " Gigi", "5955": "fit", "5956": " digging", "5957": "ab", "5958": " spiders", "5959": " disturbed", "5960": "usted", "5961": " chalk", "5962": " bowed", "5963": " worries", "5964": " ladybug", "5965": " everyday", "5966": " \n\nEm", "5967": " thrilled", "5968": " landscape", "5969": " darkness", "5970": " tastes", "5971": " scra", "5972": " rubbing", "5973": "lest", "5974": " hurric", "5975": "\n\nDaddy", "5976": " discovering", "5977": " Jacky", "5978": " voices", "5979": " event", "5980": " wid", "5981": " buzzing", "5982": "cts", "5983": " universe", "5984": "Welcome", "5985": "Not", "5986": " lines", "5987": " situ", "5988": " beat", "5989": " sausages", "5990": " leader", "5991": " ripe", "5992": " fed", "5993": " spots", "5994": " horses", "5995": " miner", "5996": " slice", "5997": " during", "5998": " turning", "5999": " struggled", "6000": " studying", "6001": " exact", "6002": " ripped", "6003": " camping", "6004": " fli", "6005": " anytime", "6006": " circus", "6007": " answers", "6008": " cous", "6009": "Dad", "6010": " ann", "6011": " rockets", "6012": " lemons", "6013": " oli", "6014": "lives", "6015": "weety", "6016": " competition", "6017": " pinched", "6018": " bab", "6019": " inch", "6020": " invit", "6021": " countryside", "6022": "mas", "6023": " Nutty", "6024": " waiter", "6025": " lamb", "6026": " Chirpy", "6027": " rhythm", "6028": " David", "6029": "jam", "6030": "amas", "6031": " strangers", "6032": " wine", "6033": " barely", "6034": " objects", "6035": " nicer", "6036": " gathering", "6037": " Nora", "6038": " brings", "6039": " doctors", "6040": " works", "6041": " tugged", "6042": " \n\nThat", "6043": " coloured", "6044": " rel", "6045": "Little", "6046": " snap", "6047": "iers", "6048": " Ra", "6049": "Jane", "6050": " trembling", "6051": " prec", "6052": "cious", "6053": " todd", "6054": " junk", "6055": " mission", "6056": " olives", "6057": "jamas", "6058": "neath", "6059": " teasing", "6060": " paintings", "6061": " tub", "6062": " melted", "6063": " breaking", "6064": " cared", "6065": " mixing", "6066": " lung", "6067": " tonight", "6068": " laid", "6069": "uby", "6070": " studied", "6071": " liqu", "6072": "quid", "6073": " protected", "6074": " wasn\u00c3\u00a2", "6075": " guessed", "6076": " crunchy", "6077": " planned", "6078": " wondering", "6079": " remove", "6080": " hits", "6081": " drinks", "6082": " seesaw", "6083": " passing", "6084": " Zoe", "6085": " creation", "6086": " brain", "6087": " web", "6088": "ences", "6089": " esca", "6090": " sty", "6091": " tickets", "6092": "Ready", "6093": " tomatoes", "6094": " racco", "6095": "coon", "6096": " served", "6097": " Maddy", "6098": " billboard", "6099": " mustache", "6100": " image", "6101": " peered", "6102": " strike", "6103": "atie", "6104": " master", "6105": "\n\nMar", "6106": " catching", "6107": "\n\nLisa", "6108": " novel", "6109": " slap", "6110": " King", "6111": "abby", "6112": " Good", "6113": " pajam", "6114": " sadness", "6115": " scurried", "6116": "\n\nJim", "6117": " Tilly", "6118": " fir", "6119": " Follow", "6120": " chuck", "6121": " teaching", "6122": " sights", "6123": " actually", "6124": " beans", "6125": " becoming", "6126": " lect", "6127": " kicking", "6128": " expected", "6129": " urged", "6130": "ions", "6131": " demanded", "6132": " x", "6133": " introduc", "6134": "uced", "6135": " \n\nMia", "6136": " prints", "6137": " area", "6138": " hurricane", "6139": " enti", "6140": "uctantly", "6141": "urry", "6142": " written", "6143": " gotten", "6144": " boom", "6145": " Spid", "6146": " soldiers", "6147": " muffins", "6148": "iar", "6149": " Gary", "6150": "pite", "6151": " \n\nOn", "6152": "rs", "6153": " curled", "6154": "xture", "6155": " row", "6156": " liquid", "6157": " raccoon", "6158": " pajamas", "6159": " Suzy", "6160": " precious", "6161": " perfor", "6162": " squea", "6163": " surface", "6164": "izing", "6165": " purred", "6166": "\nOne", "6167": "\n \n", "6168": " bites", "6169": "uzz", "6170": " inse", "6171": " hardly", "6172": " comforted", "6173": " raised", "6174": " yawn", "6175": " traff", "6176": "ffic", "6177": " determination", "6178": " coats", "6179": " Miss", "6180": " girls", "6181": " spaceship", "6182": " exactly", "6183": " piles", "6184": " loops", "6185": " brushes", "6186": " Happy", "6187": " beds", "6188": " accidents", "6189": " uncle", "6190": " Fu", "6191": "ously", "6192": " twirl", "6193": " Spike", "6194": "itches", "6195": " kingdom", "6196": " Sunny", "6197": " Santa", "6198": " bleed", "6199": " firefight", "6200": " Tiny", "6201": "xp", "6202": "pected", "6203": " outfit", "6204": " tremble", "6205": "Jim", "6206": " firm", "6207": " It\u00c3\u00a2", "6208": " can\u00c3\u00a2", "6209": "\u00c5\u0093Do", "6210": "zzie", "6211": " realize", "6212": " willing", "6213": " printed", "6214": " curiosity", "6215": "\n\nBefore", "6216": " \n\nSally", "6217": " \n\nAlice", "6218": " oil", "6219": " struck", "6220": "Goodbye", "6221": " you\u00c3\u00a2", "6222": " ago", "6223": " mall", "6224": " hers", "6225": " history", "6226": " outdo", "6227": " acted", "6228": " wisdom", "6229": " wherever", "6230": " underneath", "6231": " stam", "6232": " result", "6233": " soluti", "6234": "Daddy", "6235": " rained", "6236": " wouldn\u00c3\u00a2", "6237": " exha", "6238": "hausted", "6239": " mentioned", "6240": " nodd", "6241": " thro", "6242": " airplane", "6243": "gons", "6244": " comfy", "6245": " rocked", "6246": " bloomed", "6247": " However", "6248": " brid", "6249": " mouths", "6250": "Mmm", "6251": "riends", "6252": " masks", "6253": " buildings", "6254": " officer", "6255": " loose", "6256": " traffic", "6257": " exhausted", "6258": " wed", "6259": "ens", "6260": " gaze", "6261": " winner", "6262": " six", "6263": " watered", "6264": " bathrobe", "6265": " season", "6266": " temple", "6267": " grape", "6268": " hotel", "6269": " healed", "6270": " steam", "6271": " bunnies", "6272": "\n\nJohnny", "6273": "hia", "6274": "\n\nSammy", "6275": " loop", "6276": "ica", "6277": " Green", "6278": " Lizzy", "6279": " steak", "6280": " cord", "6281": " allig", "6282": "igator", "6283": "ula", "6284": " sew", "6285": " une", "6286": "nexp", "6287": "xpected", "6288": " greet", "6289": "\u00c5\u0093My", "6290": "\u00c5\u0093Mom", "6291": " chuckled", "6292": " Thomas", "6293": " earthqu", "6294": "quake", "6295": " gue", "6296": "uest", "6297": " lips", "6298": " weren", "6299": " Unfortunately", "6300": " lecture", "6301": "sterday", "6302": " sway", "6303": " folding", "6304": " celebration", "6305": " reluctantly", "6306": " Something", "6307": " increase", "6308": " beginning", "6309": " unpacked", "6310": " vic", "6311": "though", "6312": " slimy", "6313": " glowed", "6314": " si", "6315": " secre", "6316": "rets", "6317": " achieved", "6318": " temper", "6319": " rele", "6320": " Ralph", "6321": " exit", "6322": " throat", "6323": " smar", "6324": " sib", "6325": "iblings", "6326": " tracks", "6327": " dreamt", "6328": " vanished", "6329": " talent", "6330": " scient", "6331": "ientist", "6332": " completed", "6333": "hest", "6334": "hions", "6335": " firework", "6336": " cartoons", "6337": " groc", "6338": "cery", "6339": " grocer", "6340": "ceries", "6341": "edding", "6342": " teaches", "6343": " parked", "6344": "amy", "6345": "ities", "6346": " partic", "6347": " \n\nTogether", "6348": "\n\nPete", "6349": "amie", "6350": "\n\nKitty", "6351": " amb", "6352": "mbul", "6353": "ulance", "6354": "\n\nBobo", "6355": " crumb", "6356": " alligator", "6357": " unexpected", "6358": " earthquake", "6359": " guest", "6360": " secrets", "6361": " siblings", "6362": " scientist", "6363": " grocery", "6364": " groceries", "6365": " wedding", "6366": " ambulance", "6367": " silence", "6368": " invitation", "6369": " acorns", "6370": " steel", "6371": "uke", "6372": " Penny", "6373": " math", "6374": " Mila", "6375": " freeze", "6376": "\n\nFluffy", "6377": " By", "6378": " Did", "6379": " crowd", "6380": " safer", "6381": "\nS", "6382": " balanced", "6383": "\n\nN", "6384": " neighbours", "6385": " muscle", "6386": " Br", "6387": " applaud", "6388": "ranny", "6389": "sted", "6390": " Sure", "6391": " collection", "6392": " introduced", "6393": " network", "6394": "oney", "6395": " entire", "6396": " froz", "6397": "zen", "6398": " confident", "6399": " seems", "6400": " challenge", "6401": " \nH", "6402": "\n\nU", "6403": " gle", "6404": " wooden", "6405": " racing", "6406": " Claire", "6407": " Bee", "6408": "inda", "6409": " outdoors", "6410": "angled", "6411": " hesitated", "6412": " owned", "6413": " bedtime", "6414": " completely", "6415": "rigued", "6416": "\n\nMoral", "6417": " situation", "6418": "\n\nMa", "6419": "ented", "6420": " temperature", "6421": " direction", "6422": " arrive", "6423": " fluttered", "6424": " brushed", "6425": " valued", "6426": " Sim", "6427": " hated", "6428": " costumes", "6429": " impo", "6430": "ossible", "6431": " pause", "6432": " Tues", "6433": "uesday", "6434": " bang", "6435": " kneeled", "6436": " stem", "6437": "ones", "6438": "ots", "6439": " Friends", "6440": " hugging", "6441": " gained", "6442": " potion", "6443": " knowled", "6444": " creamy", "6445": " Slowly", "6446": " silent", "6447": " particular", "6448": " Hannah", "6449": "rance", "6450": " Suzie", "6451": " babies", "6452": "\u00c5\u0093Don\u00c3\u00a2", "6453": " punished", "6454": "aa", "6455": "ah", "6456": " frozen", "6457": " impossible", "6458": " Tuesday", "6459": " ranch", "6460": "ira", "6461": " dinosaurs", "6462": " importance", "6463": " pears", "6464": " potatoes", "6465": " squares", "6466": "gency", "6467": " tractor", "6468": " Spidey", "6469": " Sal", "6470": " Olive", "6471": " Jon", "6472": "lia", "6473": " batteries", "6474": " bricks", "6475": " tablet", "6476": " matching", "6477": "rup", "6478": " relief", "6479": "tever", "6480": " prettiest", "6481": "vin", "6482": " \n\nAmy", "6483": " sense", "6484": "Sometimes", "6485": "wo", "6486": "lls", "6487": " snatched", "6488": " ris", "6489": " twirling", "6490": " wow", "6491": " brand", "6492": " wound", "6493": " sweets", "6494": " stare", "6495": " celebrating", "6496": " unlocked", "6497": "ashes", "6498": " shock", "6499": "fire", "6500": " creating", "6501": " sisters", "6502": "\n\nToday", "6503": " gracefully", "6504": " Emmy", "6505": "nes", "6506": "\n\nNext", "6507": " powers", "6508": " actions", "6509": " sandcastles", "6510": "xcited", "6511": " darker", "6512": "Every", "6513": " awa", "6514": " dragons", "6515": " release", "6516": " fab", "6517": " pouring", "6518": " gazed", "6519": "thank", "6520": " chef", "6521": " tigers", "6522": " curly", "6523": " chases", "6524": " crackers", "6525": " pigs", "6526": " repeats", "6527": " blood", "6528": " bridges", "6529": "bbing", "6530": " reaching", "6531": "zes", "6532": " staying", "6533": " waffles", "6534": " whip", "6535": " Mimi", "6536": " opening", "6537": " fet", "6538": " worms", "6539": " contro", "6540": " mineral", "6541": " mountains", "6542": " Daniel", "6543": " activities", "6544": " Robbie", "6545": " Nick", "6546": " tricky", "6547": " firewor", "6548": "works", "6549": " yelling", "6550": " policeman", "6551": " Star", "6552": " flood", "6553": " deser", "6554": " asht", "6555": "tray", "6556": " fireworks", "6557": " ashtray", "6558": " refri", "6559": "riger", "6560": "gerator", "6561": " emergency", "6562": " firefighters", "6563": "emma", "6564": " forgi", "6565": " printer", "6566": " Jessie", "6567": "melia", "6568": " Mikey", "6569": " Pepper", "6570": " filling", "6571": " inviting", "6572": " whatever", "6573": " frosting", "6574": " trips", "6575": " applauded", "6576": " June", "6577": " however", "6578": " patterns", "6579": " stomp", "6580": " \n\nThis", "6581": " diving", "6582": " seashe", "6583": "\u00c5\u0093You\u00c3\u00a2", "6584": " conne", "6585": " grassy", "6586": "Lucy", "6587": " staring", "6588": "Mary", "6589": " itchy", "6590": " Rabbit", "6591": " burst", "6592": " tornado", "6593": " glee", "6594": " winning", "6595": " click", "6596": " oper", "6597": " Linda", "6598": " campfire", "6599": " toddler", "6600": " paddled", "6601": " fai", "6602": " intrigued", "6603": "\u00c5\u0093This", "6604": " Wed", "6605": "ednes", "6606": "nesday", "6607": " nails", "6608": " smarter", "6609": " solution", "6610": " grandb", "6611": "baby", "6612": " loving", "6613": "no", "6614": " repla", "6615": " recording", "6616": " fabric", "6617": " suff", "6618": " spill", "6619": " colored", "6620": "Today", "6621": "ths", "6622": " succeeded", "6623": " bones", "6624": "Quack", "6625": " climbs", "6626": " unf", "6627": " satisfied", "6628": " ours", "6629": " sobbed", "6630": "Then", "6631": " underground", "6632": " zero", "6633": " knowledge", "6634": " escaped", "6635": " usually", "6636": " knelt", "6637": " These", "6638": " style", "6639": " herbs", "6640": "emy", "6641": " indeed", "6642": " aff", "6643": " cautiously", "6644": " seconds", "6645": " united", "6646": " scru", "6647": "ubbed", "6648": " entrance", "6649": " encourage", "6650": " Doggy", "6651": " Spe", "6652": "oline", "6653": " pockets", "6654": " uns", "6655": "\n\nSad", "6656": " refrigerator", "6657": " Wednesday", "6658": " grandbaby", "6659": " scrubbed", "6660": " rescued", "6661": " respond", "6662": " rule", "6663": " \nHe", "6664": " shoulders", "6665": "oni", "6666": " Christ", "6667": "istmas", "6668": "ason", "6669": "bee", "6670": " Ear", "6671": "arth", "6672": " Birdy", "6673": " file", "6674": " Uncle", "6675": " lollipops", "6676": " clowns", "6677": " safari", "6678": "iona", "6679": " tickle", "6680": " experi", "6681": "\u00c5\u0093Now", "6682": "ugs", "6683": " First", "6684": " warri", "6685": "rior", "6686": " insist", "6687": " pleasure", "6688": " won\u00c3\u00a2", "6689": " Granny", "6690": " wonders", "6691": " died", "6692": " spraying", "6693": " \n\nK", "6694": " bravery", "6695": " rust", "6696": "acy", "6697": " adding", "6698": " Get", "6699": "Ah", "6700": " snuck", "6701": " fluttering", "6702": "son", "6703": " \nA", "6704": " pebbles", "6705": " chop", "6706": "dest", "6707": " tangled", "6708": " slapped", "6709": " lugg", "6710": "uggage", "6711": " stamps", "6712": " teased", "6713": " organizing", "6714": " stair", "6715": " cot", "6716": " single", "6717": " tails", "6718": " delivered", "6719": " losing", "6720": " Ruby", "6721": "\n\nGrace", "6722": " replaced", "6723": " touching", "6724": "Happy", "6725": " performance", "6726": " introduce", "6727": " desert", "6728": " dusty", "6729": "bbly", "6730": " peel", "6731": " pretends", "6732": " Yes", "6733": " listens", "6734": " swi", "6735": " cracked", "6736": " lied", "6737": " horns", "6738": "njoy", "6739": " sprinkles", "6740": " beard", "6741": " accomplish", "6742": "nge", "6743": " paths", "6744": " copy", "6745": " photos", "6746": " mater", "6747": "ateri", "6748": " ourselves", "6749": " penguins", "6750": " annoy", "6751": " plenty", "6752": " east", "6753": " strings", "6754": " mister", "6755": " control", "6756": " Christmas", "6757": " Earth", "6758": " warrior", "6759": " luggage", "6760": " materi", "6761": " contest", "6762": " sorting", "6763": " flames", "6764": " stoma", "6765": "mach", "6766": " victory", "6767": " resting", "6768": " reply", "6769": " Katie", "6770": "\u00c5\u0093What\u00c3\u00a2", "6771": " shrinking", "6772": " pupp", "6773": "teen", "6774": " darling", "6775": " pony", "6776": " disagree", "6777": " Stop", "6778": "Al", "6779": " Pandy", "6780": " concer", "6781": "ouch", "6782": " crumbs", "6783": "obble", "6784": "randpa", "6785": " bend", "6786": " Zoomy", "6787": "asm", "6788": " Di", "6789": " Robin", "6790": "Jo", "6791": " Roger", "6792": " ornament", "6793": " Tess", "6794": " Ollie", "6795": " soak", "6796": "\n\nZ", "6797": " guys", "6798": " patience", "6799": " separated", "6800": "anted", "6801": " matched", "6802": " cape", "6803": " Both", "6804": " Lizzie", "6805": " horiz", "6806": "izon", "6807": "Joe", "6808": " zipping", "6809": " \n\nJill", "6810": "Just", "6811": " improved", "6812": " lap", "6813": " Sharing", "6814": " guests", "6815": " \n\nEmily", "6816": " source", "6817": " backed", "6818": " printing", "6819": " \n\nEveryone", "6820": " chip", "6821": "\u00c5\u0093S", "6822": " budge", "6823": "anny", "6824": "eave", "6825": "toed", "6826": " hallway", "6827": " struggle", "6828": " rumble", "6829": " twinkle", "6830": " familiar", "6831": " shivered", "6832": "versity", "6833": " aren", "6834": " shall", "6835": " encouraging", "6836": " bank", "6837": " spea", "6838": "eaking", "6839": " librarian", "6840": " squealed", "6841": " scaring", "6842": " soaked", "6843": " decorated", "6844": " elf", "6845": " increased", "6846": " banged", "6847": " napkins", "6848": " foods", "6849": "\n \nThe", "6850": " swoo", "6851": "ooped", "6852": "\n\nAll", "6853": " cartoon", "6854": " noon", "6855": " delivery", "6856": " stomach", "6857": " horizon", "6858": " speaking", "6859": " workers", "6860": "ever", "6861": " melting", "6862": "obo", "6863": " fuzzy", "6864": " vow", "6865": " mice", "6866": "da", "6867": " firemen", "6868": " spook", "6869": "ooky", "6870": " cans", "6871": " swims", "6872": " highest", "6873": "eah", "6874": "rr", "6875": " rubs", "6876": " lets", "6877": " weeping", "6878": " stole", "6879": " hides", "6880": " sits", "6881": " swallow", "6882": " musician", "6883": " keeps", "6884": " bak", "6885": " sponge", "6886": "vas", "6887": " planets", "6888": " fault", "6889": " Many", "6890": " Not", "6891": " theirs", "6892": " exce", "6893": " Sadly", "6894": " goals", "6895": " Larry", "6896": "\n\nSusie", "6897": " marsh", "6898": "shm", "6899": "mal", "6900": "allow", "6901": "lows", "6902": " secure", "6903": "yes", "6904": " \n\nN", "6905": " price", "6906": " mixture", "6907": " Dot", "6908": " shivering", "6909": " unsure", "6910": "iley", "6911": " responded", "6912": " project", "6913": " Boun", "6914": " dared", "6915": " cousin", "6916": " ster", "6917": "ern", "6918": " recor", "6919": " Abbie", "6920": "go", "6921": " Co", "6922": " bleeding", "6923": " chewing", "6924": " twenty", "6925": " bully", "6926": " treehouse", "6927": " acorn", "6928": " wrist", "6929": " \n\nWhile", "6930": " foxes", "6931": " aero", "6932": " magician", "6933": " El", "6934": " quacked", "6935": " Anne", "6936": "ishes", "6937": " Janey", "6938": " Paula", "6939": " Fiona", "6940": "psy", "6941": " playtime", "6942": " caused", "6943": " videos", "6944": " inter", "6945": " behav", "6946": "vi", "6947": " shelves", "6948": "aring", "6949": " fashion", "6950": "ably", "6951": " firmly", "6952": "hello", "6953": " occ", "6954": "ita", "6955": " stol", "6956": " spooky", "6957": " marshmal", "6958": "mallows", "6959": " stern", "6960": " behavi", "6961": " stolen", "6962": "ibly", "6963": " amount", "6964": " belly", "6965": " planning", "6966": " truly", "6967": "cal", "6968": " cal", "6969": " Johnson", "6970": "\n\nO", "6971": " paintbr", "6972": " Win", "6973": " university", "6974": "\u00c5\u0093Sure", "6975": "\n\nAndy", "6976": " sever", "6977": "\n\nFred", "6978": " arrows", "6979": " released", "6980": " scratched", "6981": " bumpy", "6982": " rainbows", "6983": " widened", "6984": " protecting", "6985": " colder", "6986": "\n\nGeorge", "6987": " drifted", "6988": " stripes", "6989": " pedals", "6990": " cent", "6991": " mane", "6992": " interested", "6993": " joining", "6994": "ple", "6995": " suffered", "6996": "uggle", "6997": "ading", "6998": "\n\nJake", "6999": " vowed", "7000": " scales", "7001": " baked", "7002": " artist", "7003": " flat", "7004": "ms", "7005": " hider", "7006": " singer", "7007": " wipes", "7008": " cushions", "7009": " signed", "7010": " carriage", "7011": "choo", "7012": "She", "7013": " canvas", "7014": " coral", "7015": " bumps", "7016": " ropes", "7017": " keeper", "7018": " Furry", "7019": " Sund", "7020": " afford", "7021": " swir", "7022": " results", "7023": "zzed", "7024": " sorted", "7025": " \n\nMary", "7026": "Sally", "7027": " wink", "7028": " poking", "7029": "\n\nAnnie", "7030": "oug", "7031": " stitches", "7032": " opin", "7033": " remembering", "7034": " least", "7035": "aren", "7036": "ments", "7037": " movies", "7038": " Abby", "7039": " fever", "7040": "using", "7041": " screaming", "7042": " La", "7043": " avoid", "7044": "dri", "7045": "\n\nTweety", "7046": " princesses", "7047": "onnie", "7048": " aeroplane", "7049": "\nJack", "7050": " forehead", "7051": " Ad", "7052": " storekeeper", "7053": " rail", "7054": " Kelly", "7055": " cones", "7056": " marshmallows", "7057": "iki", "7058": " Bow", "7059": " ladybird", "7060": " shave", "7061": " Binky", "7062": " Oli", "7063": " rewarded", "7064": " \n\nBilly", "7065": "itu", "7066": "ude", "7067": " granted", "7068": " Listen", "7069": " Being", "7070": " steady", "7071": "oor", "7072": " occas", "7073": " rising", "7074": " spreading", "7075": " third", "7076": " yesterday", "7077": " adults", "7078": " adult", "7079": " seashells", "7080": "\n\nLuckily", "7081": " hesitant", "7082": "mmer", "7083": " logs", "7084": " somebody", "7085": " embarrass", "7086": " roads", "7087": " reass", "7088": "xcuse", "7089": "espite", "7090": "asp", "7091": " Put", "7092": " salty", "7093": " freed", "7094": "\u00c5\u0093Hi", "7095": " several", "7096": " operation", "7097": " Sw", "7098": " markers", "7099": " Until", "7100": " steep", "7101": " surrendered", "7102": " tax", "7103": "axi", "7104": " fara", "7105": "araway", "7106": " nodding", "7107": " shown", "7108": " prettier", "7109": " mayor", "7110": " hopeful", "7111": " inclu", "7112": "lude", "7113": " swooped", "7114": " cough", "7115": " stall", "7116": " aim", "7117": " teas", "7118": " knees", "7119": " beehi", "7120": "hive", "7121": " keys", "7122": "obody", "7123": " complained", "7124": " shined", "7125": " decides", "7126": " Watch", "7127": " ruining", "7128": " grabbing", "7129": " argu", "7130": "guing", "7131": " pennies", "7132": " beads", "7133": " roots", "7134": " Bye", "7135": " growl", "7136": " Enjoy", "7137": " mailed", "7138": " eight", "7139": " sweeties", "7140": " rip", "7141": " breathed", "7142": " flavor", "7143": " neither", "7144": " joking", "7145": " chefs", "7146": " lett", "7147": "tuce", "7148": "aster", "7149": " Sunday", "7150": " spikes", "7151": "\n\nFirst", "7152": " Out", "7153": " ting", "7154": " farther", "7155": " den", "7156": "itude", "7157": " taxi", "7158": " faraway", "7159": " include", "7160": " beehive", "7161": " arguing", "7162": " lettuce", "7163": " wires", "7164": " foc", "7165": " sides", "7166": " ty", "7167": " snakes", "7168": "yan", "7169": "\n\nBobby", "7170": " Pip", "7171": "Alice", "7172": "rin", "7173": " restored", "7174": "\n\nRose", "7175": " toss", "7176": "rick", "7177": " growling", "7178": " hedgeho", "7179": "hog", "7180": " buckets", "7181": " Sophia", "7182": " handful", "7183": " sports", "7184": "\n\nHowever", "7185": " rusty", "7186": " snowball", "7187": " lungs", "7188": " thirty", "7189": " Squ", "7190": "iggy", "7191": " Luke", "7192": " Ang", "7193": "ga", "7194": "aret", "7195": "tie", "7196": " Pu", "7197": "uppy", "7198": " cobwebs", "7199": " cakes", "7200": " Fuzzy", "7201": "luey", "7202": "chi", "7203": "hild", "7204": " Amelia", "7205": " waffle", "7206": " Sadie", "7207": " Megan", "7208": " magnets", "7209": " Flopsy", "7210": " tested", "7211": " tickled", "7212": " emerged", "7213": " \n\nMoral", "7214": " Bruce", "7215": " stomped", "7216": "\u00c5\u0093A", "7217": " twinkling", "7218": " stretching", "7219": " Pan", "7220": " \nBut", "7221": " usual", "7222": " comm", "7223": " Todd", "7224": " gli", "7225": "mmering", "7226": " address", "7227": " bars", "7228": " discussing", "7229": " \nSo", "7230": " \n\nDad", "7231": "mpered", "7232": "Excuse", "7233": "\n\nJames", "7234": " gon", "7235": "onna", "7236": " nervously", "7237": " threat", "7238": " \nHer", "7239": " splashes", "7240": " paintbrush", "7241": "\n\nMrs", "7242": " nect", "7243": "ctar", "7244": " ec", "7245": " performing", "7246": " wasted", "7247": " belo", "7248": "loved", "7249": " doves", "7250": " broom", "7251": "\n\nBella", "7252": " bunch", "7253": "ades", "7254": " squish", "7255": " requested", "7256": " hedgehog", "7257": "garet", "7258": " Puppy", "7259": " gonna", "7260": " nectar", "7261": " beloved", "7262": " Pinky", "7263": "cky", "7264": " pecked", "7265": " slower", "7266": "\nHe", "7267": " \n\nNow", "7268": "Grandma", "7269": " polishing", "7270": " Ali", "7271": "eel", "7272": " Simon", "7273": "hee", "7274": " soapy", "7275": " dragged", "7276": " burrow", "7277": "\n\nJo", "7278": " designed", "7279": " \n\nBet", "7280": "etty", "7281": " cast", "7282": " dresser", "7283": " \n\nAnna", "7284": "va", "7285": " Thanks", "7286": "ngr", "7287": " seeker", "7288": "Boo", "7289": " wears", "7290": " pets", "7291": " forks", "7292": "Spot", "7293": " reads", "7294": " blows", "7295": " tiptoed", "7296": "Goodnight", "7297": " blocking", "7298": " fits", "7299": " tweet", "7300": " prank", "7301": " playroom", "7302": " misses", "7303": " attack", "7304": " west", "7305": " choo", "7306": " awes", "7307": "esome", "7308": "Gre", "7309": " sticking", "7310": "\n\nDays", "7311": " rainco", "7312": "coat", "7313": " seats", "7314": " homework", "7315": "ans", "7316": " accomplishment", "7317": " Judy", "7318": " pose", "7319": " surfboard", "7320": " Matt", "7321": " express", "7322": " packing", "7323": " scurry", "7324": "rying", "7325": "iece", "7326": " responsible", "7327": "\n\nDucky", "7328": " Nan", "7329": " discussed", "7330": " quilt", "7331": "water", "7332": " Riley", "7333": "lara", "7334": "teve", "7335": "cker", "7336": " rocking", "7337": " removed", "7338": " anger", "7339": " teasp", "7340": " yourselves", "7341": "weetie", "7342": "\n\nMike", "7343": "\n\nAlex", "7344": " Pam", "7345": "aty", "7346": "eaky", "7347": " repaired", "7348": " complaining", "7349": " Boo", "7350": " honked", "7351": " Fire", "7352": " regretted", "7353": " wobble", "7354": " twice", "7355": " calf", "7356": " awesome", "7357": " raincoat", "7358": " knights", "7359": " guy", "7360": " Nana", "7361": " Fox", "7362": " cupcake", "7363": " Sh", "7364": "han", "7365": " Nina", "7366": " \n\nJenny", "7367": " supplies", "7368": " forgiven", "7369": " Adam", "7370": " Poppy", "7371": "pit", "7372": " Rover", "7373": " toe", "7374": " hus", "7375": "sb", "7376": "band", "7377": " Wally", "7378": " Flora", "7379": "\n\nMaria", "7380": " Bluey", "7381": " screwdri", "7382": "driver", "7383": "ona", "7384": "lsie", "7385": " pis", "7386": "isto", "7387": "tol", "7388": " grandchi", "7389": "child", "7390": "ky", "7391": " Ricky", "7392": " tricked", "7393": " Dolly", "7394": "ani", "7395": " Beep", "7396": " Ow", "7397": " pumpkins", "7398": "Take", "7399": " experien", "7400": "enced", "7401": " imagining", "7402": "urious", "7403": " faced", "7404": " gems", "7405": " glasses", "7406": "umm", "7407": "\u00c5\u0093Wow", "7408": " heading", "7409": " onward", "7410": " \n\nSusie", "7411": " decl", "7412": "hloe", "7413": " mer", "7414": " cheering", "7415": " ribbons", "7416": "mbers", "7417": " flags", "7418": " includ", "7419": "uding", "7420": " Leave", "7421": " connected", "7422": " prove", "7423": " blink", "7424": " \nShe", "7425": " daring", "7426": " froze", "7427": "\u00c5\u0093Well", "7428": "allo", "7429": " pleaded", "7430": "well", "7431": " instrum", "7432": " seven", "7433": " examining", "7434": " siren", "7435": " echo", "7436": " papa", "7437": " \n\nEventually", "7438": " flight", "7439": " Taking", "7440": " tim", "7441": " provided", "7442": "ni", "7443": "if", "7444": " mom\u00c3\u00a2", "7445": " Ac", "7446": " puff", "7447": " forgetting", "7448": " spoonful", "7449": " strongest", "7450": " bows", "7451": " believing", "7452": " jackets", "7453": " awake", "7454": " sneaky", "7455": "eeling", "7456": " husband", "7457": " screwdriver", "7458": " pistol", "7459": " grandchild", "7460": " including", "7461": "nif", "7462": " buying", "7463": " owners", "7464": " sneaked", "7465": " marker", "7466": " delayed", "7467": "tage", "7468": " dipped", "7469": " drift", "7470": " squeezing", "7471": " canes", "7472": " Bea", "7473": " draws", "7474": " dots", "7475": " sighs", "7476": " hissed", "7477": " screams", "7478": "Yeah", "7479": " matters", "7480": " boo", "7481": " prunes", "7482": " sweep", "7483": " sale", "7484": "Have", "7485": " swallowed", "7486": " gest", "7487": " ruin", "7488": " paddle", "7489": " chee", "7490": "eks", "7491": " Keep", "7492": "\n\nDuring", "7493": " marriage", "7494": " prick", "7495": " edges", "7496": " drives", "7497": " teles", "7498": "lescope", "7499": " Vroom", "7500": " overcome", "7501": " honk", "7502": "bbling", "7503": " braver", "7504": " Carol", "7505": " prayer", "7506": "usan", "7507": " Sun", "7508": " families", "7509": " passen", "7510": " Ryan", "7511": " coo", "7512": " tramp", "7513": "mpoline", "7514": " \n\nOnce", "7515": " conqu", "7516": " Prin", "7517": "athan", "7518": " efforts", "7519": " afterwards", "7520": " travelling", "7521": "lody", "7522": "Those", "7523": " puppies", "7524": "sha", "7525": " crashing", "7526": "Let\u00c3\u00a2", "7527": " ast", "7528": "stron", "7529": "rona", "7530": "aut", "7531": " peeking", "7532": " prob", "7533": "bably", "7534": "\n\nLola", "7535": " Harry", "7536": " patted", "7537": "acob", "7538": "helle", "7539": " younger", "7540": "for", "7541": " pandas", "7542": " tearing", "7543": " traps", "7544": " spy", "7545": " helpers", "7546": " forty", "7547": "Quackers", "7548": " youth", "7549": "ipp", "7550": " \n\nSammy", "7551": " mile", "7552": " nearly", "7553": "ann", "7554": "non", "7555": "Johnny", "7556": " cheeks", "7557": " telescope", "7558": " trampoline", "7559": " astrona", "7560": "ronaut", "7561": " probably", "7562": "annon", "7563": "osie", "7564": " Gemma", "7565": "ene", "7566": " unic", "7567": "lyn", "7568": " limes", "7569": " radishes", "7570": "uggling", "7571": " screws", "7572": "cia", "7573": " mushrooms", "7574": " Tara", "7575": " Alison", "7576": "hael", "7577": " ger", "7578": " Catty", "7579": "nne", "7580": "int", "7581": " ramp", "7582": " Whi", "7583": " Birdie", "7584": " Alan", "7585": "ista", "7586": " dads", "7587": " treated", "7588": " experienced", "7589": " greeted", "7590": " preparing", "7591": " stealing", "7592": " occasion", "7593": " warmly", "7594": " politely", "7595": "tive", "7596": "found", "7597": "\u00c5\u0093Hey", "7598": " merma", "7599": "maid", "7600": " accomplished", "7601": "ino", "7602": "Sue", "7603": " Two", "7604": " peacefully", "7605": " \nF", "7606": " hour", "7607": " crystals", "7608": " reun", "7609": "united", "7610": " commun", "7611": " tallest", "7612": "aul", "7613": "\n\nKate", "7614": "enise", "7615": " glitt", "7616": "harles", "7617": " refresh", "7618": "reshing", "7619": "\n\nI", "7620": " streets", "7621": "Em", "7622": "\nThey", "7623": " scampered", "7624": " wishing", "7625": "\n\nAfterwards", "7626": " startled", "7627": " Take", "7628": "its", "7629": " Maisy", "7630": "\n\nUnfortunately", "7631": "Peter", "7632": " wandering", "7633": "inger", "7634": " Although", "7635": " antic", "7636": "Ha", "7637": " compared", "7638": " declared", "7639": " tar", "7640": " \n\nDaisy", "7641": " solving", "7642": " tunnels", "7643": "\n\nTony", "7644": " lu", "7645": "ux", "7646": " \n\nRachel", "7647": " everybody", "7648": " goodnight", "7649": "years", "7650": "dies", "7651": " stroked", "7652": " def", "7653": " pedaled", "7654": " couple", "7655": " cottage", "7656": " astronaut", "7657": " mermaid", "7658": " reunited", "7659": " refreshing", "7660": " lux", "7661": " snuggle", "7662": " leading", "7663": " rul", "7664": " leaning", "7665": " Nobody", "7666": " creativ", "7667": "ivity", "7668": " dived", "7669": " claps", "7670": " sniffs", "7671": "\n\nLeo", "7672": "Ro", "7673": " peck", "7674": " flap", "7675": " learns", "7676": " wept", "7677": " Pudd", "7678": " sneezing", "7679": " untie", "7680": " honking", "7681": " dollhouse", "7682": " thud", "7683": " players", "7684": " coach", "7685": "ibbit", "7686": " superheroes", "7687": " prickly", "7688": " speaker", "7689": " fetch", "7690": " ni", "7691": " firefly", "7692": " handing", "7693": " annoyed", "7694": "Listen", "7695": " Another", "7696": "\n\nJerry", "7697": "xcitedly", "7698": " flown", "7699": " rushing", "7700": " fant", "7701": "antastic", "7702": "\n\nBu", "7703": " buzzed", "7704": " Without", "7705": " calmed", "7706": " confu", "7707": " traveled", "7708": " Lou", "7709": " slither", "7710": " scurrying", "7711": "ugging", "7712": " travelled", "7713": "flowers", "7714": " Jamie", "7715": " Dotty", "7716": " hitting", "7717": " Remember", "7718": "George", "7719": " nine", "7720": " Ty", "7721": " pupils", "7722": " bookshe", "7723": "helf", "7724": "\n\nToby", "7725": " recorded", "7726": " expect", "7727": " \n\nTina", "7728": " repeated", "7729": "\u00c5\u0093See", "7730": " conse", "7731": "sequ", "7732": " coloring", "7733": "\u00c5\u0093Where", "7734": " height", "7735": "rnie", "7736": " polished", "7737": "ebby", "7738": " punishment", "7739": " grandparents", "7740": " insect", "7741": " til", "7742": "ilted", "7743": " warnings", "7744": " onions", "7745": " causing", "7746": "\u00c5\u0093Come", "7747": " crabs", "7748": " lighter", "7749": " deserve", "7750": " pouch", "7751": " sternly", "7752": " boards", "7753": " Cle", "7754": " Hugs", "7755": "Mr", "7756": " creativity", "7757": " fantastic", "7758": " bookshelf", "7759": " consequ", "7760": " auto", "7761": " admiration", "7762": " comforting", "7763": " surfing", "7764": " miles", "7765": "Joey", "7766": " Clow", "7767": "lown", "7768": " Margaret", "7769": " tires", "7770": " enthusiasm", "7771": " recommended", "7772": " Peanut", "7773": " Jessica", "7774": "izzy", "7775": " Speed", "7776": " Jeff", "7777": " Coco", "7778": " Michael", "7779": " Moon", "7780": "Bun", "7781": "belle", "7782": " \n\nMittens", "7783": " Baa", "7784": "iko", "7785": " badger", "7786": " Rani", "7787": " lined", "7788": "Meow", "7789": " Blo", "7790": " Wil", "7791": "Quick", "7792": " returning", "7793": " visi", "7794": "itor", "7795": " \n\nLittle", "7796": " newfound", "7797": " confid", "7798": "idence", "7799": " beam", "7800": "Whi", "7801": " local", "7802": " healing", "7803": " neatly", "7804": " poss", "7805": " Goodbye", "7806": "rily", "7807": "sabel", "7808": " behaving", "7809": " zigza", "7810": " Nothing", "7811": " frowning", "7812": " feast", "7813": "elve", "7814": "boat", "7815": " clearly", "7816": " munch", "7817": "wise", "7818": "All", "7819": " active", "7820": " That\u00c3\u00a2", "7821": " convers", "7822": " insp", "7823": " fires", "7824": "10", "7825": " chopping", "7826": " stool", "7827": "ussel", "7828": " sank", "7829": "cep", "7830": " luxu", "7831": "Teddy", "7832": "iggly", "7833": " behavior", "7834": " lower", "7835": " rainy", "7836": " fond", "7837": "\n\nThere", "7838": " die", "7839": " Grand", "7840": "Whee", "7841": "itely", "7842": " combed", "7843": " plain", "7844": " cub", "7845": " ruler", "7846": " gobbled", "7847": " wrapping", "7848": " appreciated", "7849": " bravest", "7850": " Mo", "7851": " bowls", "7852": " windy", "7853": "ility", "7854": " wobbly", "7855": " eats", "7856": " Clown", "7857": " visitor", "7858": " confidence", "7859": " catches", "7860": " heaven", "7861": " refu", "7862": " touches", "7863": "boo", "7864": " fairies", "7865": " talks", "7866": " Isn", "7867": "His", "7868": " rolls", "7869": " wiggle", "7870": " finishing", "7871": " bandages", "7872": " basement", "7873": "Uh", "7874": " materials", "7875": " yells", "7876": " explorers", "7877": "oosh", "7878": " crawls", "7879": "Run", "7880": "Great", "7881": "\n\nJoey", "7882": " glitter", "7883": " health", "7884": " pract", "7885": " text", "7886": "xtures", "7887": " notes", "7888": "chy", "7889": " drying", "7890": " \nWhen", "7891": " scent", "7892": " floors", "7893": " performed", "7894": " Susan", "7895": " final", "7896": "jo", "7897": " echoed", "7898": " Jose", "7899": " scrat", "7900": "atches", "7901": " passengers", "7902": " Everybody", "7903": "tons", "7904": "uzie", "7905": " creations", "7906": " resisted", "7907": " grain", "7908": " dev", "7909": " bey", "7910": "eyond", "7911": " consequences", "7912": " observed", "7913": " blooming", "7914": " Stella", "7915": " woodpe", "7916": "pecker", "7917": " Karen", "7918": " thrown", "7919": "arest", "7920": " stew", "7921": " Island", "7922": "vels", "7923": " teaspoon", "7924": "bird", "7925": "artled", "7926": " wiggled", "7927": " within", "7928": " \n\nGrandma", "7929": " plans", "7930": " tilted", "7931": " praying", "7932": " You\u00c3\u00a2", "7933": "\u00c5\u0093But", "7934": "Ew", "7935": " \n\nBobby", "7936": " troubles", "7937": " Dina", "7938": " acting", "7939": " mitten", "7940": "\n\nMaggie", "7941": "Jen", "7942": "rink", "7943": " wiping", "7944": " crowns", "7945": "Rex", "7946": " months", "7947": "\u00c3\u0083", "7948": " panick", "7949": " lent", "7950": " automo", "7951": "mob", "7952": "bile", "7953": "AA", "7954": " that\u00c3\u00a2", "7955": "atur", "7956": " textures", "7957": " scratches", "7958": " beyond", "7959": " woodpecker", "7960": " automobile", "7961": " pies", "7962": " fears", "7963": " yielded", "7964": " Holly", "7965": " seatb", "7966": "belt", "7967": "othy", "7968": "ngrat", "7969": "atul", "7970": " artwork", "7971": " concert", "7972": " watering", "7973": " battle", "7974": " Elle", "7975": " unicorn", "7976": " zebr", "7977": "bras", "7978": " leads", "7979": " Carl", "7980": "ippin", "7981": " juggling", "7982": " Josie", "7983": " Tabby", "7984": "aniel", "7985": " kites", "7986": " Jonas", "7987": "ura", "7988": " Mother", "7989": " Jelly", "7990": "\n\nSadie", "7991": " Hoppy", "7992": "gar", "7993": " genie", "7994": "ppa", "7995": " Happyland", "7996": "utter", "7997": " Riko", "7998": " Rollie", "7999": "asha", "8000": "acken", "8001": "enzie", "8002": " beeped", "8003": "\n\nFin", "8004": " Try", "8005": " Bloom", "8006": "torm", "8007": " business", "8008": " students", "8009": " grant", "8010": " girl\u00c3\u00a2", "8011": " roamed", "8012": "ertain", "8013": " wealth", "8014": " rather", "8015": " heavier", "8016": " insisting", "8017": " \n\nLola", "8018": " refle", "8019": " flowing", "8020": "hh", "8021": "  They", "8022": " wad", "8023": " curiously", "8024": "\n\nFrank", "8025": " dolly", "8026": " swayed", "8027": " glimmering", "8028": " risks", "8029": " chill", "8030": " designs", "8031": " Denise", "8032": "Honey", "8033": " satisf", "8034": "fac", "8035": "action", "8036": "bank", "8037": " Isabel", "8038": " mesmer", "8039": " Clar", "8040": " lifting", "8041": "Jenny", "8042": " chopped", "8043": " Mouse", "8044": " freedom", "8045": "\n\nWill", "8046": "St", "8047": "clo", "8048": " \n\nBe", "8049": " whispering", "8050": " anticip", "8051": "ipation", "8052": " \n\nAll", "8053": " Any", "8054": " \nSuddenly", "8055": " planting", "8056": " seatbelt", "8057": "ngratul", "8058": " zebras", "8059": "ackenzie", "8060": " satisfaction", "8061": " anticipation", "8062": " posit", "8063": " obeyed", "8064": " target", "8065": " despite", "8066": " motion", "8067": " squishy", "8068": " Russel", "8069": " Becky", "8070": " pouted", "8071": " luxury", "8072": " deal", "8073": " suggestion", "8074": " desper", "8075": " twisting", "8076": "asting", "8077": "oys", "8078": " tidying", "8079": " rustling", "8080": " goodby", "8081": "byes", "8082": " pots", "8083": " cowb", "8084": "boy", "8085": " Bir", "8086": "irthday", "8087": " parti", "8088": "ties", "8089": " \n\nJake", "8090": " defin", "8091": "initely", "8092": " \nThey", "8093": " smelling", "8094": " films", "8095": " syrup", "8096": "hew", "8097": " twinkled", "8098": " robots", "8099": " skill", "8100": " grandf", "8101": "father", "8102": " chang", "8103": "anging", "8104": " hops", "8105": " What\u00c3\u00a2", "8106": " dep", "8107": " surroundings", "8108": " \n\nPeter", "8109": "ded", "8110": " stays", "8111": " uses", "8112": "Very", "8113": " timer", "8114": "Fine", "8115": " growls", "8116": " covers", "8117": " pours", "8118": " coop", "8119": " rains", "8120": " Rain", "8121": " giraffes", "8122": " stirs", "8123": " ease", "8124": " age", "8125": " belts", "8126": " afar", "8127": " charge", "8128": " towels", "8129": " gross", "8130": " delivering", "8131": " bakery", "8132": "fla", "8133": " cousins", "8134": " beetles", "8135": " oh", "8136": " vanilla", "8137": "just", "8138": " enemy", "8139": " flapping", "8140": "rees", "8141": " compli", "8142": " foots", "8143": "ootste", "8144": "teps", "8145": " det", "8146": "ails", "8147": " sens", "8148": " unco", "8149": " except", "8150": "ngo", "8151": " spran", "8152": "rang", "8153": " peeped", "8154": " driveway", "8155": " Despite", "8156": " goodbyes", "8157": " Birthday", "8158": " parties", "8159": " definitely", "8160": " grandfather", "8161": " changing", "8162": " footsteps", "8163": " sprang", "8164": "unched", "8165": " \n\nEmma", "8166": " calmly", "8167": "\n\nMe", "8168": "anw", "8169": "while", "8170": "\n\nMr", "8171": " explorer", "8172": "ssy", "8173": " quarreling", "8174": " wil", "8175": "\nSo", "8176": " joked", "8177": "\n\nRemy", "8178": " confli", "8179": " marked", "8180": " odd", "8181": " For", "8182": " jobs", "8183": " Mean", "8184": " swans", "8185": " opinion", "8186": " conquered", "8187": " borrowed", "8188": " wre", "8189": " Nathan", "8190": " underwater", "8191": " Patrick", "8192": "Sammy", "8193": " Matty", "8194": " Dog", "8195": "milda", "8196": " scul", "8197": "ulpt", "8198": " towns", "8199": "spe", "8200": "people", "8201": " dripping", "8202": "rops", "8203": " masterp", "8204": "lon", "8205": " disappoin", "8206": "oint", "8207": " alongside", "8208": " und", "8209": " guns", "8210": " Debby", "8211": " center", "8212": "artin", "8213": " cause", "8214": " reminding", "8215": " defe", "8216": " Maya", "8217": "Time", "8218": "\nJohn", "8219": " Jacob", "8220": " sailboat", "8221": " recorder", "8222": "Sarah", "8223": "inkled", "8224": " plucked", "8225": " smal", "8226": "allest", "8227": " lending", "8228": " steth", "8229": "thos", "8230": "oscope", "8231": " badge", "8232": "Our", "8233": " breathing", "8234": " needles", "8235": " Quackers", "8236": " Dory", "8237": "Nemo", "8238": "\n\nGrandpa", "8239": " nearest", "8240": " cafe", "8241": " Toto", "8242": "yla", "8243": " shady", "8244": " soo", "8245": " Chris", "8246": " winked", "8247": "\n\nTh", "8248": "fly", "8249": " Shannon", "8250": "avin", "8251": " Mickey", "8252": " swept", "8253": " doorway", "8254": "Thomas", "8255": " Clumsy", "8256": "anwhile", "8257": " sculpt", "8258": " townspeople", "8259": " disappoint", "8260": " smallest", "8261": " stethoscope", "8262": " handy", "8263": " arran", "8264": "itched", "8265": " Jason", "8266": " Along", "8267": " Sn", "8268": "\n\nRo", "8269": " exploration", "8270": " \nMax", "8271": "romise", "8272": "Hop", "8273": " blond", "8274": " heartb", "8275": "bro", "8276": "roken", "8277": "racie", "8278": " Pippin", "8279": " Wiggly", "8280": " oysters", "8281": "ylve", "8282": "lvester", "8283": " Mona", "8284": " Elsie", "8285": " ranger", "8286": "gie", "8287": "shley", "8288": " Sa", "8289": " Laura", "8290": " Bust", "8291": "uster", "8292": " dama", "8293": " germs", "8294": " Finny", "8295": " Muffy", "8296": "athy", "8297": " Cher", "8298": " Tia", "8299": " wee", "8300": "eeke", "8301": "kend", "8302": "urball", "8303": " leopards", "8304": "herry", "8305": " Trista", "8306": " snail", "8307": "igzag", "8308": " grat", "8309": "atitude", "8310": " interrup", "8311": " \n \nThe", "8312": " inj", "8313": "\nA", "8314": " fact", "8315": " Poor", "8316": "\u00c5\u0093Of", "8317": " blocked", "8318": "ctive", "8319": " Rita", "8320": "str", "8321": " waters", "8322": " whir", "8323": " chipm", "8324": "munk", "8325": "Which", "8326": " action", "8327": " members", "8328": " waddled", "8329": " displayed", "8330": " backwards", "8331": " opp", "8332": " revers", "8333": "\nBut", "8334": " possess", "8335": "ching", "8336": " respected", "8337": " exch", "8338": " covering", "8339": " storms", "8340": "\nIt", "8341": " nas", "8342": "asty", "8343": " petting", "8344": " spices", "8345": " pedaling", "8346": " reassured", "8347": " hab", "8348": " apologised", "8349": " wider", "8350": " fain", "8351": "aint", "8352": " Behind", "8353": " vibr", "8354": " Man", "8355": " conc", "8356": " heartbroken", "8357": "ylvester", "8358": " Buster", "8359": " weekend", "8360": " gratitude", "8361": " chipmunk", "8362": " nasty", "8363": " \n\nBen", "8364": " puzzled", "8365": " vanish", "8366": " amo", "8367": "mong", "8368": " thanking", "8369": " suitcases", "8370": "\u00c5\u0093Mummy", "8371": " \nJimmy", "8372": "\nMommy", "8373": " envir", "8374": "iron", "8375": "onment", "8376": " Jack\u00c3\u00a2", "8377": " cond", "8378": " \n\nBy", "8379": " Accep", "8380": "ceptor", "8381": " joyful", "8382": " fare", "8383": "rewell", "8384": " drums", "8385": " cleared", "8386": " feeding", "8387": " shops", "8388": "ption", "8389": " fascinating", "8390": " Mer", "8391": "eri", "8392": "acle", "8393": "\n\nJosh", "8394": " blast", "8395": " aud", "8396": "udience", "8397": "\n\nMilly", "8398": " swee", "8399": "etest", "8400": " Afterwards", "8401": " goodies", "8402": " whoever", "8403": " candies", "8404": " petal", "8405": " insects", "8406": "cessary", "8407": " tables", "8408": "retty", "8409": "ounced", "8410": " suffering", "8411": "aning", "8412": " wraps", "8413": "\n\nMiss", "8414": " cares", "8415": " licking", "8416": " Sorry", "8417": " hamm", "8418": " Che", "8419": "Bad", "8420": " instruments", "8421": "Dear", "8422": " hood", "8423": " jars", "8424": "but", "8425": " scoop", "8426": " leather", "8427": " tuck", "8428": " snowfla", "8429": " code", "8430": " clues", "8431": " neckla", "8432": "laces", "8433": "lets", "8434": "ids", "8435": " flavors", "8436": " cuts", "8437": " squaw", "8438": " understands", "8439": " faded", "8440": " comets", "8441": " ties", "8442": " untied", "8443": " bru", "8444": " Water", "8445": " Y", "8446": " levers", "8447": " conv", "8448": "vince", "8449": " Bongo", "8450": " drawn", "8451": " crossing", "8452": " twin", "8453": " awo", "8454": "\n\nMaddy", "8455": " directions", "8456": " among", "8457": " environment", "8458": " Acceptor", "8459": " farewell", "8460": " Meri", "8461": " audience", "8462": " sweetest", "8463": " necklaces", "8464": " convince", "8465": " sandy", "8466": " nights", "8467": " clou", "8468": "oudy", "8469": "asted", "8470": " scrubb", "8471": "ubbing", "8472": " leapt", "8473": " fins", "8474": "versed", "8475": "\nF", "8476": " brightest", "8477": " Jet", "8478": " paying", "8479": " Doug", "8480": " \n\nInside", "8481": "rpie", "8482": " mur", "8483": " devast", "8484": "astated", "8485": " pays", "8486": "aple", "8487": " trot", "8488": "tted", "8489": " \n\nSad", "8490": "\n\nClara", "8491": "udged", "8492": "ders", "8493": " pointy", "8494": " fif", "8495": " \nJohn", "8496": " custom", "8497": "tomers", "8498": " rai", "8499": "aind", "8500": "ndrops", "8501": "nifer", "8502": "Amy", "8503": "shadow", "8504": " sprinkled", "8505": "\n\nCar", "8506": " shovels", "8507": " Ernie", "8508": "\u00c5\u0093The", "8509": "enti", "8510": "\n\nSt", "8511": "ophia", "8512": " Pit", "8513": " Bounce", "8514": " tipped", "8515": " classm", "8516": "mates", "8517": "\n\nFrog", "8518": " gar", "8519": " dod", "8520": "tonished", "8521": "Some", "8522": "Bobby", "8523": " joyfully", "8524": " Michelle", "8525": "\n\nSophie", "8526": " Well", "8527": " wrinkled", "8528": "Yummy", "8529": "Always", "8530": "ollow", "8531": " Rusty", "8532": " snowballs", "8533": " suits", "8534": " scraped", "8535": " cooper", "8536": " reason", "8537": " charac", "8538": "racter", "8539": "ters", "8540": " dolph", "8541": "hins", "8542": " promises", "8543": " ev", "8544": "vil", "8545": " beaver", "8546": " tant", "8547": "antr", "8548": "rum", "8549": " symbols", "8550": " guide", "8551": " Squirrel", "8552": " kayaking", "8553": " chips", "8554": "rouble", "8555": "\u00c5\u0093We\u00c3\u00a2", "8556": " cloudy", "8557": " scrubbing", "8558": " devastated", "8559": " trotted", "8560": " customers", "8561": " raindrops", "8562": " classmates", "8563": " dolphins", "8564": " evil", "8565": " tantrum", "8566": " snowmen", "8567": "\u00c5\u0093Maybe", "8568": " crew", "8569": " failed", "8570": " surfer", "8571": " Jana", "8572": " Bro", "8573": "rother", "8574": "Any", "8575": " Micky", "8576": " Fa", "8577": " cheerfully", "8578": " Bumpy", "8579": " Col", "8580": "olor", "8581": "orful", "8582": " talented", "8583": " thoughts", "8584": "riend", "8585": " plo", "8586": " \n\nLuckily", "8587": " jailer", "8588": " steer", "8589": " Pudding", "8590": " sandpit", "8591": " congratul", "8592": " \n\nWith", "8593": " misc", "8594": "chie", "8595": "hievous", "8596": " Bri", "8597": "essie", "8598": " panting", "8599": " Cla", "8600": " Diana", "8601": " Love", "8602": " disob", "8603": " forgiveness", "8604": " dragonfly", "8605": " Other", "8606": " Seeing", "8607": " wins", "8608": " Sylvester", "8609": "ecting", "8610": "ively", "8611": " panicked", "8612": "arper", "8613": "rand", "8614": "ker", "8615": "ena", "8616": " Maxi", "8617": " Ashley", "8618": "\n\nHannah", "8619": " simply", "8620": "rench", "8621": " Annabelle", "8622": "endy", "8623": " vinegar", "8624": " BunBun", "8625": " Zip", "8626": "harin", "8627": " peas", "8628": " Peppa", "8629": " Mira", "8630": "\n\nMira", "8631": " Buttons", "8632": " mints", "8633": "squeak", "8634": "brina", "8635": "enelope", "8636": " Bonnie", "8637": " Maggy", "8638": " Sid", "8639": " Bouncy", "8640": " Joan", "8641": " Tor", "8642": "ori", "8643": "wig", "8644": "telle", "8645": " Cherry", "8646": "recrow", "8647": " Allie", "8648": " Mindy", "8649": " corals", "8650": " speeding", "8651": " Dependable", "8652": " Oliver", "8653": " Because", "8654": " manager", "8655": " invol", "8656": " Brother", "8657": " mischievous", "8658": " Tori", "8659": "\n\nCharlie", "8660": "\nSuddenly", "8661": "\n\nElla", "8662": "ffled", "8663": " facing", "8664": "belie", "8665": " \n\nJim", "8666": "eness", "8667": " chilly", "8668": " permitted", "8669": "ract", "8670": "\n\nRachel", "8671": "umbling", "8672": " caret", "8673": "tak", "8674": "aker", "8675": " incredibly", "8676": " trusting", "8677": " stepping", "8678": " outing", "8679": " Say", "8680": " worksh", "8681": "shop", "8682": " hollow", "8683": " reversing", "8684": " merry", "8685": " clut", "8686": " response", "8687": " scramb", "8688": "mbled", "8689": " gladly", "8690": " bond", "8691": " Alf", "8692": " hearing", "8693": " beating", "8694": " Was", "8695": " riddle", "8696": " glittered", "8697": " riverbank", "8698": " behaved", "8699": "ives", "8700": " caution", "8701": " pencils", "8702": "ition", "8703": "\n\nSandy", "8704": "ently", "8705": " ass", "8706": " strolled", "8707": "\u00c5\u0093Yay", "8708": "\n\nAl", "8709": " disturbing", "8710": " bellies", "8711": "ords", "8712": " texture", "8713": " Ginger", "8714": " parted", "8715": " aside", "8716": " otherwise", "8717": " Swim", "8718": " dip", "8719": " conversation", "8720": "esterday", "8721": "val", "8722": " Mae", "8723": " beg", "8724": "ixie", "8725": " leaking", "8726": " chatted", "8727": "Sandy", "8728": " appreciation", "8729": "\n\nTeddy", "8730": " thumbs", "8731": " croaked", "8732": " tasting", "8733": " \n\nU", "8734": "Unfortunately", "8735": "\n\nEven", "8736": " aimed", "8737": "rect", "8738": " slices", "8739": " theat", "8740": "atre", "8741": "ummies", "8742": "vive", "8743": " cubes", "8744": "icia", "8745": " freezing", "8746": " activity", "8747": "stantly", "8748": "wed", "8749": " member", "8750": " discoveries", "8751": "umin", "8752": " trading", "8753": " goats", "8754": " ais", "8755": " naps", "8756": " caretaker", "8757": " workshop", "8758": " scrambled", "8759": " theatre", "8760": " cuddly", "8761": " Hallo", "8762": "alloween", "8763": " lifts", "8764": " hen", "8765": " cracker", "8766": " spits", "8767": " Hello", "8768": " grows", "8769": " piled", "8770": " orders", "8771": " forgives", "8772": " kings", "8773": " queens", "8774": " traded", "8775": " reck", "8776": "ckless", "8777": " bells", "8778": " stung", "8779": " swo", "8780": "ollen", "8781": " spills", "8782": " stain", "8783": " Welcome", "8784": " forgets", "8785": " unw", "8786": " handsome", "8787": "vant", "8788": " pans", "8789": " tickling", "8790": " picnics", "8791": " snowflakes", "8792": " bracelets", "8793": " sill", "8794": "rrr", "8795": " drawers", "8796": " darlings", "8797": "\n\nTr", "8798": " details", "8799": " Trust", "8800": " closes", "8801": " tapping", "8802": " moo", "8803": " computers", "8804": " tips", "8805": " designing", "8806": " scri", "8807": " scrub", "8808": " Luckily", "8809": " spelling", "8810": " vegg", "8811": "ggies", "8812": " signing", "8813": " differently", "8814": " shaped", "8815": " ends", "8816": "  She", "8817": " bubbly", "8818": " register", "8819": " glittering", "8820": " gul", "8821": " sniffing", "8822": " rescuing", "8823": " pizzas", "8824": " scratching", "8825": " prayers", "8826": " expression", "8827": " movement", "8828": " \n\nFirst", "8829": " focused", "8830": " till", "8831": "\n\nLilly", "8832": "\u00c5\u0093Good", "8833": " choices", "8834": " Ex", "8835": " reversed", "8836": " baths", "8837": " wobbled", "8838": " silently", "8839": " Speedy", "8840": " waking", "8841": " Rhythm", "8842": "\n\nMittens", "8843": "ars", "8844": "\n\nSadly", "8845": "cel", "8846": " lou", "8847": " Princess", "8848": " reapp", "8849": " tossed", "8850": " force", "8851": " Mabel", "8852": " weighs", "8853": " cleaner", "8854": " material", "8855": "Susie", "8856": " Halloween", "8857": " reckless", "8858": " swollen", "8859": " veggies", "8860": " mysteries", "8861": "Dog", "8862": " tests", "8863": " applauding", "8864": " ful", "8865": "ulf", "8866": "\u00c5\u0093Who", "8867": "lers", "8868": " inspired", "8869": " masterpiece", "8870": " foreshadow", "8871": "ulie", "8872": " wanna", "8873": " bound", "8874": " unfam", "8875": "amil", "8876": "iliar", "8877": " harvest", "8878": " tingle", "8879": " roars", "8880": "\n\nKim", "8881": " longest", "8882": " pound", "8883": " garb", "8884": "bage", "8885": " Whoever", "8886": " astonished", "8887": " squeaky", "8888": "\u00c5\u0093If", "8889": " \n\nSue", "8890": " cheers", "8891": "uliet", "8892": "\n\nMother", "8893": " shouldn\u00c3\u00a2", "8894": "Mandy", "8895": " sails", "8896": " scarves", "8897": "please", "8898": " pepperoni", "8899": " sewing", "8900": " presses", "8901": " blushed", "8902": " ge", "8903": "eese", "8904": " squeaked", "8905": "ex", "8906": " cowboy", "8907": " spins", "8908": "\n\nAn", "8909": "eds", "8910": " shirts", "8911": " decorating", "8912": " Ribbit", "8913": " milli", "8914": "lion", "8915": " \n\nBetsy", "8916": " piggy", "8917": " pastries", "8918": " glu", "8919": "\u00c5\u0093F", "8920": " compan", "8921": " Noah", "8922": " what\u00c3\u00a2", "8923": " tempt", "8924": "tation", "8925": "aia", "8926": " Angie", "8927": " Ken", "8928": " cas", "8929": "ashi", "8930": "hier", "8931": " Eric", "8932": " \nBob", "8933": " worn", "8934": " Timothy", "8935": "Hold", "8936": "ete", "8937": " purring", "8938": " Rory", "8939": " embarrassing", "8940": " Colorful", "8941": " Biggy", "8942": " zookeeper", "8943": "\n\nPolly", "8944": " custo", "8945": "tomer", "8946": " \n\nMr", "8947": " beauti", "8948": " plopped", "8949": " Rudy", "8950": "anes", "8951": "\n\nBunny", "8952": " Off", "8953": " Gabby", "8954": " pills", "8955": " tumbled", "8956": " fulf", "8957": " unfamiliar", "8958": " garbage", "8959": " geese", "8960": " million", "8961": " temptation", "8962": " cashier", "8963": " customer", "8964": " congratulated", "8965": "\n\nMimi", "8966": "aitlyn", "8967": " Therese", "8968": " weights", "8969": " pigeons", "8970": " Jean", "8971": " Winter", "8972": " Pap", "8973": "\n\nFlo", "8974": " Libby", "8975": "ightning", "8976": " Liza", "8977": " answering", "8978": "Emily", "8979": " dangers", "8980": " Cari", "8981": " models", "8982": " Lively", "8983": "\n\nPa", "8984": "\u00c5\u0093Thanks", "8985": "abina", "8986": " responsibly", "8987": " Patty", "8988": " purpose", "8989": " Spark", "8990": " questioned", "8991": " Clarice", "8992": " desks", "8993": " \n\nTeddy", "8994": "Ralph", "8995": "\n\nRalph", "8996": " bullies", "8997": "Alright", "8998": " \nHis", "8999": " Zara", "9000": "\n\nJenna", "9001": "\n\nKayla", "9002": " popper", "9003": "\n\nBubbles", "9004": " somer", "9005": "ersa", "9006": "ila", "9007": " wrench", "9008": " Snugg", "9009": "uggles", "9010": "weed", "9011": " Ouch", "9012": " Roo", "9013": " pads", "9014": " Lucky", "9015": "iggs", "9016": " Te", "9017": " Sharin", "9018": " Tig", "9019": "iger", "9020": " Am", "9021": " Tes", "9022": "essa", "9023": " Fuzz", "9024": "saurus", "9025": " kangaroos", "9026": " JoJo", "9027": " Penelope", "9028": " records", "9029": " Sle", "9030": "leepy", "9031": " baker", "9032": "illiam", "9033": " owlet", "9034": " Flutter", "9035": " Zero", "9036": " Oliv", "9037": "via", "9038": " Mackenzie", "9039": "ertie", "9040": " Riding", "9041": " Hood", "9042": " Angel", "9043": "elina", "9044": " lumberj", "9045": "jack", "9046": " relaxing", "9047": " Zigzag", "9048": " twis", "9049": "isty", "9050": " \n\nCharlie", "9051": "bur", "9052": " Curious", "9053": "\n\nBill", "9054": " Wor", "9055": " welcoming", "9056": " somersa", "9057": " Snuggles", "9058": " Tiger", "9059": " Tessa", "9060": " Sleepy", "9061": " Olivia", "9062": " Angelina", "9063": " lumberjack", "9064": " twisty", "9065": " stopping", "9066": " we\u00c3\u00a2", "9067": " explaining", "9068": " pinching", "9069": "\n\nRita", "9070": " belongings", "9071": " crou", "9072": "rouched", "9073": "\n\nJune", "9074": " swaying", "9075": "Isn", "9076": " yelped", "9077": " born", "9078": " communic", "9079": " Hi", "9080": "Gl", "9081": "lad", "9082": "ighting", "9083": " angrily", "9084": "ware", "9085": " bloss", "9086": " Lacy", "9087": "Mine", "9088": " robb", "9089": "Henry", "9090": " atte", "9091": "temp", "9092": "innie", "9093": " knives", "9094": " cuddling", "9095": " Summer", "9096": " toward", "9097": " reaction", "9098": " lim", "9099": "  The", "9100": "Put", "9101": " Does", "9102": " windowsill", "9103": " sped", "9104": "Hmm", "9105": " sav", "9106": "ooks", "9107": " swords", "9108": " hardest", "9109": "\u00c5\u0093W", "9110": " faint", "9111": "how", "9112": "\n\nFreddy", "9113": " concent", "9114": " floats", "9115": " stretches", "9116": " wiser", "9117": "\n\nDanny", "9118": " Oh", "9119": "nail", "9120": " \n\nBenny", "9121": "\n\nSince", "9122": " \n\nSophie", "9123": "\n\nEmmy", "9124": " leap", "9125": " faith", "9126": "stick", "9127": " streamers", "9128": " \n\nMa", "9129": " \nTom", "9130": " presented", "9131": " Since", "9132": " attitude", "9133": "ounting", "9134": " form", "9135": "ortunately", "9136": " unpacking", "9137": " winding", "9138": " Gina", "9139": " \n\nBefore", "9140": " cotton", "9141": " wakes", "9142": " \n\nEven", "9143": " tiss", "9144": " scal", "9145": " pec", "9146": "eculi", "9147": "uliar", "9148": " spat", "9149": " \nFrom", "9150": " \n\nAnn", "9151": " clicked", "9152": " cosy", "9153": " \n\nUnfortunately", "9154": " centre", "9155": " diamonds", "9156": " crouched", "9157": "Glad", "9158": " attemp", "9159": " peculiar", "9160": "solute", "9161": "lutely", "9162": "mark", "9163": " minerals", "9164": " avocad", "9165": "ados", "9166": " admit", "9167": " Sk", "9168": " raising", "9169": " \n\nBetty", "9170": " storybook", "9171": " tummies", "9172": " survive", "9173": " shrank", "9174": " ill", "9175": " bride", "9176": " Leticia", "9177": "James", "9178": " pout", "9179": " depths", "9180": " corners", "9181": " deciding", "9182": " gardener", "9183": " aisle", "9184": " ignoring", "9185": " responsib", "9186": "ibility", "9187": " exploded", "9188": " scattering", "9189": "Tweet", "9190": " adds", "9191": " bom", "9192": "omb", "9193": "Roar", "9194": " dances", "9195": "Too", "9196": " Cars", "9197": " hammered", "9198": " throne", "9199": " raises", "9200": " knocks", "9201": " knots", "9202": " locks", "9203": "Shh", "9204": " cheated", "9205": " singers", "9206": "tock", "9207": " wisely", "9208": " \n\nPolly", "9209": " dressing", "9210": "che", "9211": " smiley", "9212": " clubs", "9213": " scored", "9214": " humans", "9215": " suns", "9216": "sc", "9217": " protection", "9218": " experim", "9219": "iment", "9220": "Woof", "9221": " headache", "9222": "Like", "9223": " trembled", "9224": "Sha", "9225": " burns", "9226": " lens", "9227": " explode", "9228": " kicks", "9229": " agrees", "9230": " wag", "9231": " awful", "9232": " sprays", "9233": " repeating", "9234": " vehicles", "9235": " buses", "9236": " whoosh", "9237": " frowns", "9238": " annoying", "9239": " bud", "9240": " scolds", "9241": " terrified", "9242": " unloaded", "9243": " angels", "9244": " ache", "9245": " trans", "9246": " practised", "9247": "cup", "9248": "upine", "9249": " munching", "9250": " Brad", "9251": "Jake", "9252": " \nB", "9253": " tidied", "9254": " teachers", "9255": " although", "9256": "solutely", "9257": " avocados", "9258": " responsibility", "9259": " bomb", "9260": " experiment", "9261": "cupine", "9262": " blades", "9263": " necessary", "9264": " wax", "9265": " worrying", "9266": " gesture", "9267": " rejo", "9268": "joic", "9269": " opport", "9270": "ortun", "9271": " rivers", "9272": " knobs", "9273": " quieter", "9274": " stur", "9275": "urdy", "9276": " types", "9277": " confus", "9278": "sion", "9279": "izzie", "9280": " escaping", "9281": "\nFinally", "9282": "\n\nJamie", "9283": " conflict", "9284": " medals", "9285": " woken", "9286": " Piper", "9287": "\n\nSuzie", "9288": " rewards", "9289": " unison", "9290": " thorns", "9291": " providing", "9292": " Nancy", "9293": " loudest", "9294": "Mar", "9295": " blues", "9296": " springing", "9297": " Maple", "9298": " Lots", "9299": " whose", "9300": "\n\nBetty", "9301": " \n\nHowever", "9302": " device", "9303": " worker", "9304": " skates", "9305": "Her", "9306": "\n\nMat", "9307": " shallow", "9308": "sen", "9309": " shimm", "9310": " Ab", "9311": "bi", "9312": " Emilda", "9313": " harmony", "9314": " sculptures", "9315": "bu", "9316": "Daisy", "9317": " Jennifer", "9318": " Nee", "9319": "eeN", "9320": "Nee", "9321": " disappointment", "9322": "Everything", "9323": " expert", "9324": "\n\nSophia", "9325": " racer", "9326": " increasing", "9327": " \n\nCindy", "9328": " aloud", "9329": " luckiest", "9330": " Kin", "9331": " \n\nMark", "9332": " passes", "9333": "\n\nChloe", "9334": " fetched", "9335": " Up", "9336": "\u00c5\u0093P", "9337": " rays", "9338": " gliding", "9339": "\u00c5\u0093There", "9340": "Open", "9341": "Follow", "9342": "uction", "9343": " tugging", "9344": " pitchfor", "9345": "fork", "9346": " sweat", "9347": " stroke", "9348": " Jokes", "9349": " opinions", "9350": " hunting", "9351": " gap", "9352": "struc", "9353": " Span", "9354": "anish", "9355": " Stay", "9356": " rejoic", "9357": " opportun", "9358": " sturdy", "9359": " confusion", "9360": " Abi", "9361": " NeeNee", "9362": " pitchfork", "9363": " Spanish", "9364": "\n\nTweetie", "9365": " travels", "9366": " choosing", "9367": " slithered", "9368": " knocking", "9369": " dears", "9370": "five", "9371": "\n\nRex", "9372": " attacked", "9373": " biting", "9374": " golfer", "9375": " earn", "9376": " zooms", "9377": " Cleaning", "9378": " labels", "9379": " earned", "9380": " cactuses", "9381": " stalls", "9382": " sending", "9383": " preschool", "9384": " elect", "9385": " Play", "9386": " cuddles", "9387": "\n\nNemo", "9388": "An", "9389": " Trouble", "9390": " sniffled", "9391": " Fid", "9392": "ido", "9393": " companion", "9394": " Cha", "9395": "had", "9396": " Sharon", "9397": " Satur", "9398": "aturday", "9399": " Jackie", "9400": " Petey", "9401": " gardens", "9402": "\n\nJulia", "9403": " \n\nMar", "9404": " stacked", "9405": "Anytime", "9406": " Jessi", "9407": "ounce", "9408": " \n\nJohnny", "9409": " Gavin", "9410": " ali", "9411": "elvet", "9412": " beautifully", "9413": "\n\nFroggy", "9414": " languages", "9415": " throughout", "9416": " camps", "9417": "psite", "9418": "meow", "9419": " surely", "9420": "planes", "9421": "essica", "9422": " type", "9423": " swimmer", "9424": " reminds", "9425": " ol", "9426": " Rod", "9427": " Super", "9428": "\n\nSteve", "9429": " craft", "9430": " laying", "9431": " strum", "9432": " sunflowers", "9433": " fashions", "9434": " Kaitlyn", "9435": " tunes", "9436": "uffle", "9437": " Janie", "9438": " Jog", "9439": "asmine", "9440": "\n\nDave", "9441": "\n\nBeth", "9442": "manda", "9443": " movements", "9444": " disobey", "9445": " blonde", "9446": "\u00c5\u0093Okay", "9447": " refuse", "9448": " Marvin", "9449": " Peggy", "9450": " undo", "9451": " Pin", "9452": "inchy", "9453": "uggy", "9454": "welcome", "9455": " whipped", "9456": " Fido", "9457": " Chad", "9458": " Saturday", "9459": " campsite", "9460": " Pinchy", "9461": " expecting", "9462": " Harper", "9463": "arrow", "9464": " mothers", "9465": "eth", "9466": " focus", "9467": " Louie", "9468": "avid", "9469": " turnip", "9470": " Macy", "9471": " Simone", "9472": " murky", "9473": " Rock", "9474": "oured", "9475": " forgiving", "9476": " cages", "9477": "mmy", "9478": " poses", "9479": " princ", "9480": "cip", "9481": "ipal", "9482": " tanks", "9483": " \nTommy", "9484": "rap", "9485": "rew", "9486": " postmas", "9487": "master", "9488": " \n\nAl", "9489": "inny", "9490": " rotting", "9491": "allory", "9492": " zigzagging", "9493": " glued", "9494": " winks", "9495": "Oop", "9496": "ops", "9497": "cot", "9498": " seaweed", "9499": " Gra", "9500": " Izzy", "9501": "uther", "9502": " Whippy", "9503": "onny", "9504": " Greene", "9505": "adel", "9506": "eline", "9507": " Fae", "9508": " Roy", "9509": " jay", "9510": " packages", "9511": " capes", "9512": " guesses", "9513": " joey", "9514": " Celery", "9515": " trusts", "9516": " ny", "9517": "ymp", "9518": "mph", "9519": " Furball", "9520": " Pipsqueak", "9521": " Sabrina", "9522": " changes", "9523": " Lenny", "9524": " Tino", "9525": " Davey", "9526": " Sasha", "9527": "\n\nThomas", "9528": " Paw", "9529": " wilde", "9530": "debe", "9531": "beest", "9532": "andra", "9533": " Suna", "9534": " Snowball", "9535": " Beef", "9536": " Squeaky", "9537": " plow", "9538": " spears", "9539": " sewed", "9540": "eat", "9541": "\n\nElly", "9542": "\n\nBinky", "9543": " Nice", "9544": " dot", "9545": " behaviour", "9546": "\n\nCindy", "9547": "storm", "9548": " crowded", "9549": " Quick", "9550": "Quickly", "9551": "beha", "9552": " Working", "9553": " tempted", "9554": " yumm", "9555": "ummiest", "9556": " principal", "9557": " postmaster", "9558": "Oops", "9559": "adeline", "9560": " nymph", "9561": " wildebeest", "9562": " yummiest", "9563": " gorge", "9564": "orgeous", "9565": " certain", "9566": " surprising", "9567": " glisten", "9568": "istening", "9569": " sus", "9570": "usp", "9571": " convin", "9572": " \n\nChloe", "9573": " buyer", "9574": " instantly", "9575": "Pa", "9576": "free", "9577": " nearer", "9578": " communicate", "9579": " decisions", "9580": " operator", "9581": " Charles", "9582": "\n\nCharles", "9583": " shorts", "9584": " embarrassment", "9585": " attempts", "9586": "\n\nBy", "9587": " wiggly", "9588": "\n\nEach", "9589": " prices", "9590": " mesmerized", "9591": " Kari", "9592": " daily", "9593": "\n\nJacky", "9594": " gallo", "9595": " \n\nJacky", "9596": "issa", "9597": " threatened", "9598": " fluff", "9599": " Raven", "9600": " arom", "9601": "oma", "9602": " keen", "9603": " shrunk", "9604": " guided", "9605": " hund", "9606": "ndred", "9607": " hideout", "9608": " ghosts", "9609": "\n\nTed", "9610": " flopped", "9611": " inser", "9612": "serted", "9613": " vibrant", "9614": " burnt", "9615": "\n\nSlowly", "9616": " unable", "9617": " instin", "9618": "incts", "9619": "wn", "9620": "Benny", "9621": " snar", "9622": " softest", "9623": "\n\nY", "9624": "Yesterday", "9625": "Andy", "9626": "ection", "9627": " positive", "9628": " souven", "9629": "venir", "9630": " helmets", "9631": " Counting", "9632": " Pixie", "9633": "Charlie", "9634": " energet", "9635": "getic", "9636": " naughtiness", "9637": " Per", "9638": " leaks", "9639": " marve", "9640": "ips", "9641": " Right", "9642": " clucked", "9643": " soaking", "9644": " counts", "9645": " \n\n\nThe", "9646": "apers", "9647": " \n\nHenry", "9648": " gentleman", "9649": "imon", "9650": " creams", "9651": " circled", "9652": "dad", "9653": " visits", "9654": " reception", "9655": " absolutely", "9656": " gorgeous", "9657": " glistening", "9658": " susp", "9659": " aroma", "9660": " hundred", "9661": " inserted", "9662": " instincts", "9663": " souvenir", "9664": " energetic", "9665": "\nTom", "9666": " fondly", "9667": " spe", "9668": " spilling", "9669": " taped", "9670": " gasp", "9671": " bowing", "9672": " Instantly", "9673": "adually", "9674": " Anny", "9675": "\n\nSure", "9676": " supplied", "9677": " snoo", "9678": "  It", "9679": " stamped", "9680": " rely", "9681": "icle", "9682": " stumble", "9683": "\n\nSnow", "9684": "nowy", "9685": "daughter", "9686": " carries", "9687": " chews", "9688": " begs", "9689": " skips", "9690": " swimsuit", "9691": "Ab", "9692": "racad", "9693": "ada", "9694": "abra", "9695": " builders", "9696": " tissue", "9697": " explains", "9698": " stuffing", "9699": " tongues", "9700": " strokes", "9701": " pitc", "9702": "itcher", "9703": " fans", "9704": " gasps", "9705": " Our", "9706": " giggles", "9707": " purrs", "9708": " gestures", "9709": " visitors", "9710": " noticing", "9711": " realizing", "9712": " sunsc", "9713": "creen", "9714": " webs", "9715": "Silly", "9716": " tableclo", "9717": "cloth", "9718": " groom", "9719": " blank", "9720": " woof", "9721": " sipped", "9722": " rings", "9723": " smashed", "9724": "oc", "9725": " rips", "9726": " clue", "9727": " bodies", "9728": "\n\nBo", "9729": " squished", "9730": " jud", "9731": "udges", "9732": " announced", "9733": "\n\nFor", "9734": " Again", "9735": " Swimming", "9736": " boiled", "9737": "\n\nEveryday", "9738": " porcupine", "9739": "ripe", "9740": " bold", "9741": " Sitting", "9742": " spoiling", "9743": " state", "9744": " awoke", "9745": " lessons", "9746": " swirl", "9747": " Yum", "9748": " marks", "9749": " munched", "9750": " fireflies", "9751": " bubbling", "9752": " stor", "9753": " uncover", "9754": "ening", "9755": " sunse", "9756": "\n\nSnowy", "9757": "racadabra", "9758": " pitcher", "9759": " sunscreen", "9760": " tablecloth", "9761": " judges", "9762": " sunsets", "9763": " particularly", "9764": " chatting", "9765": " Under", "9766": " ank", "9767": "kle", "9768": " bushy", "9769": " confusing", "9770": " Wherever", "9771": " threads", "9772": "\nEvery", "9773": " lava", "9774": " stal", "9775": " Don\u00c3\u00a2", "9776": " Joseph", "9777": " gri", "9778": " checkout", "9779": " bruises", "9780": " brightened", "9781": " Pancake", "9782": " rustle", "9783": " formed", "9784": " niece", "9785": " Cow", "9786": " vines", "9787": "Bunny", "9788": "Kitty", "9789": "Car", "9790": " Carla", "9791": "\n\nDoug", "9792": "can", "9793": "ative", "9794": "hand", "9795": "anded", "9796": " Chirpie", "9797": "\n\nChi", "9798": " persu", "9799": " allowing", "9800": "haps", "9801": " blown", "9802": " snowy", "9803": " Frankie", "9804": " discou", "9805": "coura", "9806": "raged", "9807": " community", "9808": " bits", "9809": " snug", "9810": " maid", "9811": " Marc", "9812": " Could", "9813": " sacks", "9814": " \n\nBack", "9815": " wetter", "9816": " sprinkle", "9817": " loses", "9818": "\n\nKatie", "9819": " loading", "9820": " We\u00c3\u00a2", "9821": " \n\nToby", "9822": "wing", "9823": "Surpr", "9824": "urprise", "9825": " glinted", "9826": " \n\nSteve", "9827": " melody", "9828": " Outside", "9829": " serving", "9830": "\nHer", "9831": " trudged", "9832": "\n\nMillie", "9833": " shimmered", "9834": " sensation", "9835": "the", "9836": " pipes", "9837": " correct", "9838": " \nJack", "9839": "uccess", "9840": " fulfill", "9841": " rejoiced", "9842": " lookout", "9843": " ruffled", "9844": " hooves", "9845": " foreshadowed", "9846": " gazing", "9847": " measurements", "9848": " minds", "9849": "\u00c5\u0093How", "9850": "utside", "9851": "ners", "9852": " aware", "9853": " oatme", "9854": "meal", "9855": " gulped", "9856": " ankle", "9857": " discouraged", "9858": "Surprise", "9859": " oatmeal", "9860": "Lisa", "9861": " tying", "9862": "\n\nStartled", "9863": "what", "9864": " Hope", "9865": "\u00c5\u0093Please", "9866": " donkey", "9867": " guessing", "9868": "die", "9869": " defeated", "9870": " rotten", "9871": "aya", "9872": " forced", "9873": " coolest", "9874": "\u00c5\u0093Are", "9875": "\u00c3\u0082", "9876": " mood", "9877": " Juliet", "9878": " situations", "9879": "\nMom", "9880": " Willow", "9881": " \n\nMandy", "9882": "acles", "9883": "\n\nJulie", "9884": " attend", "9885": " Copper", "9886": " tighter", "9887": " saddle", "9888": " unz", "9889": "zip", "9890": " peeled", "9891": " padd", "9892": " fade", "9893": "Zoom", "9894": " hind", "9895": " slammed", "9896": "struction", "9897": " Of", "9898": "hank", "9899": " conduc", "9900": "uctor", "9901": " flashes", "9902": " characters", "9903": " sheets", "9904": " sideways", "9905": " interrupted", "9906": "Bang", "9907": " chatter", "9908": " astronauts", "9909": "vroom", "9910": " \n\nExcitedly", "9911": " burger", "9912": " parking", "9913": " kinder", "9914": " electri", "9915": "ricit", "9916": "city", "9917": " Aunt", "9918": "untie", "9919": " seagulls", "9920": " groups", "9921": " Mid", "9922": "idnight", "9923": " Connie", "9924": " glist", "9925": "istened", "9926": "RR", "9927": " \n\nGrandpa", "9928": "look", "9929": " Ayla", "9930": "dling", "9931": "\n\nCat", "9932": " \n\nAfterwards", "9933": " releasing", "9934": "why", "9935": " soothing", "9936": " guarding", "9937": "fived", "9938": " dodged", "9939": " lef", "9940": "fto", "9941": "Mark", "9942": "\nMama", "9943": "aqu", "9944": "qui", "9945": " brushing", "9946": " cupcakes", "9947": " burying", "9948": " aqu", "9949": "quari", "9950": "arium", "9951": " babys", "9952": "ysitter", "9953": " aliens", "9954": "\n\nV", "9955": " pitched", "9956": " conductor", "9957": " electricity", "9958": " Midnight", "9959": " glistened", "9960": " lefto", "9961": "aqui", "9962": " aquarium", "9963": " babysitter", "9964": " differences", "9965": "Nina", "9966": " airplanes", "9967": " experiences", "9968": "\n\nJessica", "9969": " breaths", "9970": " oldest", "9971": " arranged", "9972": " grandparent", "9973": " blender", "9974": " steering", "9975": " bis", "9976": " stroll", "9977": "  \n\nWhen", "9978": " tapped", "9979": " charity", "9980": " streams", "9981": " deserved", "9982": " stitched", "9983": "lem", "9984": " Clem", "9985": " forests", "9986": " flipped", "9987": " Shaun", "9988": " Brian", "9989": " stores", "9990": " cler", "9991": "erk", "9992": "ager", "9993": " checking", "9994": " realise", "9995": "ically", "9996": " recognizing", "9997": "ingle", "9998": "<|unknown|>", "9999": "<|eos|>"}